!</w>
,</w>
.</w>
0
000</w>
00</w>
0</w>
1
10
10</w>
11
12
12</w>
13
14
14</w>
15
17</w>
18</w>
19
192
1940</w>
197
19</w>
1</w>
2
20
203</w>
21</w>
22</w>
23</w>
24</w>
28</w>
2</w>
2hp</w>
3
31</w>
32</w>
34</w>
3</w>
4
40
404</w>
40</w>
43</w>
45</w>
4</w>
5
50</w>
53</w>
56</w>
5</w>
6
600</w>
6</w>
7
75</w>
78</w>
7</w>
8
8</w>
9
9</w>
:</w>
;</w>
</w>
?</w>
a
a</w>
ab
aba</w>
abajo</w>
aban
aban</w>
abandon
abandona</w>
abandonado</w>
abandonar</w>
abandono</w>
abandonó</w>
abar
abas</w>
abe</w>
abi
abierta</w>
abierto</w>
abiertos</w>
abila</w>
abilidad</w>
able</w>
ablemente</w>
ables</w>
abneg
abnegación</w>
abo
abog
abogado</w>
abol
abomin
abominable</w>
abon
abor
aboton
abr
abra</w>
abraz
abrazados</w>
abre</w>
abrevi
abri
abriendo</w>
abriera</w>
abrigo</w>
abrigos</w>
abrir
abrir</w>
abrirse</w>
abrió</w>
abría</w>
abrían</w>
absolu
absoluta</w>
absolutamente</w>
absoluto</w>
absor
absorta</w>
abstr
abstracción</w>
abstracto</w>
absurda</w>
absurdamente</w>
absurdas</w>
absurdo</w>
absurdos</w>
abuela</w>
abul
abun
abund
abundan</w>
abur
aburri
aburrido</w>
ac
ac</w>
aca
aca</w>
acab
acaba</w>
acababa</w>
acababan</w>
acabado</w>
acaban</w>
acabar</w>
acabara</w>
acabaron</w>
acabaría</w>
acabó</w>
academia</w>
acal</w>
acalam
acalambr
acar
acari
acarici
acaricia</w>
acariciaba</w>
acarician</w>
acariciando</w>
acariciar</w>
acarició</w>
acaso</w>
acat
acceso</w>
accidente</w>
acciones</w>
acción</w>
ace
ace</w>
aceite</w>
acel
aceler
acent
acentu
acep
acepción</w>
acept
acepta</w>
aceptable</w>
aceptación</w>
aceptado</w>
aceptando</w>
aceptar</w>
aceptó</w>
acer
acera</w>
acerca</w>
acercaba</w>
acercaban</w>
acercando</w>
acercar</w>
acercarme</w>
acercarse</w>
acercándose</w>
acercó</w>
acerqué</w>
aces</w>
ach
aci
acia</w>
acias</w>
acidad</w>
acio</w>
acion
aciones</w>
acita</w>
acito</w>
acitos</w>
ación</w>
ack
ack</w>
aclar
aco
aco</w>
acolchado</w>
acom
acomo
acompañ
acompaña</w>
acompañaba</w>
acompañado</w>
acompañar</w>
acompañarla</w>
acon
aconse
aconsej
aconsejó</w>
aconte
acor
acord
acordaba</w>
acordar</w>
acordarme</w>
acordarse</w>
acorde</w>
acordes</w>
acordás</w>
acordó</w>
acorral
acorralado</w>
acos</w>
acost
acostado</w>
acostarse</w>
acostumbr
acotación</w>
acta</w>
actas</w>
acti
actitud</w>
activa</w>
activi
actividades</w>
activo</w>
activos</w>
acto</w>
actor</w>
actores</w>
actos</w>
actual</w>
acu
acuario</w>
acude</w>
acuden</w>
acuerda</w>
acuerdo</w>
acumul
acumulación</w>
acuosa</w>
acuosas</w>
acurru
acá</w>
ad
ad</w>
ada</w>
adagio</w>
adam
adam</w>
adamente</w>
adas</w>
adbekunkus</w>
adecu
adecuada</w>
adel
adelant
adelantado</w>
adelantarse</w>
adelante</w>
adelantó</w>
adelg
adem
además</w>
adentro</w>
adera</w>
aderas</w>
aderos</w>
ades</w>
adgalle</w>
adi
adilla</w>
adivin
adiós</w>
adje
admi
administr
administración</w>
administrador</w>
admir
admira</w>
admirable</w>
admiración</w>
admiradores</w>
admirando</w>
admirar</w>
admit
admitir</w>
admon
ado
ado</w>
adol
adolesc
adolescente</w>
adoquin
adoquines</w>
ador
ador</w>
adora</w>
adoras</w>
adores</w>
ados</w>
adquir
adrenalina</w>
adu
adura</w>
adver
advertir</w>
advi
adó
adónde</w>
aer
af
afe
afec
afecto</w>
afei
afer
afi
aficion
aficionado</w>
afin
afir
afirmar</w>
afirmó</w>
afli
aflig
aflige</w>
afligi
afloj
aflojar</w>
afuera</w>
ag
aga
aga</w>
agach
agachado</w>
agachó</w>
agar
agarr
agarra</w>
agarrado</w>
agarrar</w>
agarrarse</w>
agarró</w>
agas</w>
agaz
agazap
agazapado</w>
age</w>
agentes</w>
ages</w>
agi
agit
agita</w>
agitaba</w>
agitó</w>
aglutin
aglutinante</w>
agn
agnó
ago
ago</w>
agobi
agol
agon</w>
agos</w>
agosto</w>
agot
agr
agrad
agrada</w>
agradable</w>
agradables</w>
agradec
agradecido</w>
agrado</w>
agreg
agrega</w>
agregar</w>
agregó</w>
agri
agu
agua</w>
aguant
aguanta</w>
aguantar</w>
aguar
aguas</w>
aguda</w>
aguja</w>
agujero</w>
agujeros</w>
agü
ah
ah</w>
ahin
aho
ahog
ahogada</w>
ahogado</w>
ahor
ahora</w>
ahorr
ahu
ahuy
ahí</w>
ai
ai</w>
ain</w>
air
aire</w>
aires</w>
ais
ais</w>
aisl
aisladas</w>
ait</w>
aj
aja</w>
ajas</w>
aje</w>
ajedrez</w>
ajen
ajena</w>
ajenas</w>
ajenjo</w>
ajeno</w>
ajenos</w>
ajes</w>
ajo</w>
ajos</w>
ajust
ak
ak</w>
al
al</w>
ala</w>
alab
alac
alam
alambre</w>
alarg
alari
alaridos</w>
alas</w>
alba</w>
albañ
albañiles</w>
albert</w>
alberto</w>
alcan
alcance</w>
alcancé</w>
alcanz
alcanza</w>
alcanzaba</w>
alcanzable</w>
alcanzado</w>
alcanzan</w>
alcanzar</w>
alcanzó</w>
alcaucil</w>
alco
alcohol</w>
ald
aldo</w>
ale
ale</w>
alea</w>
alegr
alegre</w>
alegremente</w>
alegría</w>
alegóri
alej
aleja</w>
alejaba</w>
alejand
alejandro</w>
alejarse</w>
alem
alemán</w>
alent
ales</w>
aletas</w>
aleza</w>
alf
alfa</w>
alfil
alfileres</w>
alfombra</w>
alfombras</w>
alg
alga</w>
algas</w>
algo</w>
algodones</w>
algodón</w>
alguien</w>
alguna</w>
algunas</w>
alguno</w>
algunos</w>
algún</w>
ali
alia</w>
alias</w>
alidad</w>
alidades</w>
aliento</w>
aliment
alimento</w>
alimentos</w>
alina</w>
alis</w>
alismo</w>
alista</w>
alistas</w>
alito</w>
alivi
aliviado</w>
alivio</w>
alix</w>
aliz
alización</w>
all
all</w>
alla</w>
allas</w>
alle
alle</w>
allen</w>
allá</w>
allí</w>
alma</w>
almac
almacén</w>
almanaque</w>
almente</w>
almirante</w>
almoh
almohada</w>
almor
almuerzo</w>
aloj
alors</w>
alqui
alrededor</w>
alt
alta</w>
altas</w>
alter
altern
alterna</w>
alternativamente</w>
alto</w>
altos</w>
altura</w>
alturas</w>
alu
alucin
alucinación</w>
alum
alumbr
alumnos</w>
alusiones</w>
alusión</w>
alz
alza</w>
alzaba</w>
alzando</w>
alzar</w>
alzó</w>
alía</w>
am
ama</w>
amaba</w>
amable</w>
amablemente</w>
aman
amanecer</w>
amante</w>
amantes</w>
amants</w>
amar
amar</w>
amarga</w>
amargo</w>
amarill
amarilla</w>
amarillas</w>
amarillo</w>
amas</w>
ambi
ambiciones</w>
ambición</w>
ambiente</w>
ambul
ambulancia</w>
ame
ame</w>
amen
amenaz
amenazas</w>
amente</w>
amento</w>
ameri
american
americana</w>
americano</w>
americanos</w>
ami
amiento</w>
amientos</w>
amiga</w>
amigas</w>
amigo</w>
amigos</w>
amin
amist
amistad</w>
amisto
amistoso</w>
amita</w>
amo
amo</w>
amon
amonte</w>
amonton
amontonadas</w>
amontonados</w>
amor
amor</w>
amores</w>
amos</w>
amour</w>
amours</w>
ampa</w>
ampli
ampo
ampollas</w>
américa</w>
an
an</w>
ana</w>
anac
anacr
anal
anali
analizar</w>
analí
anamente</w>
anar
anas</w>
ancha</w>
ancho</w>
anci
ancia</w>
anciana</w>
anciano</w>
ancianos</w>
ancias</w>
and
and</w>
anda</w>
andaba</w>
andaban</w>
andado</w>
andamos</w>
andan</w>
andando</w>
andante</w>
andar</w>
andate</w>
ande</w>
andenes</w>
ander
ando</w>
andu
anduvieran</w>
andá</w>
andábamos</w>
andás</w>
andén</w>
ane</w>
anes</w>
anestesia</w>
angu
angusti
angustia</w>
angustias</w>
ani
anilla</w>
anim
animaba</w>
animal</w>
animales</w>
animidad</w>
aniqui
anita</w>
anna</w>
ano
ano</w>
anoch
anoche</w>
anochecer</w>
anos</w>
anotó</w>
ans</w>
ansi
ansia</w>
ansiedad</w>
ant
ant</w>
anta</w>
antag
antas</w>
ante
ante</w>
antemente</w>
anten
antenas</w>
anteojos</w>
antepecho</w>
anteri
anterior</w>
antes</w>
anti
antigu
antiguo</w>
antino
anto
anto</w>
antonio</w>
antos</w>
antro
antropo
ants</w>
antúnez</w>
anu
anunci
anuncia</w>
anunciar</w>
anuncio</w>
anuncios</w>
anunció</w>
anza</w>
anzas</w>
aná</w>
análisis</w>
análo
análoga</w>
anás</w>
anécdo
anécdotas</w>
anóni
ap
apa
apa</w>
apag
apagado</w>
apagar</w>
apagó</w>
apar
aparato</w>
aparec
aparece</w>
aparecen</w>
aparecer</w>
apareci
aparecido</w>
apareció</w>
aparecía</w>
aparentemente</w>
apari
aparición</w>
apariencia</w>
aparte</w>
apasion
apel
apelación</w>
apen
apenas</w>
apertura</w>
api
apl
aplas
aplastaba</w>
aplastado</w>
aplastó</w>
aplau
aplaudiendo</w>
aplausos</w>
aplaz
apli
aplicadamente</w>
aplicado</w>
aplicar</w>
apo
apoder
apost
apoteosis</w>
apoy
apoya</w>
apoyaba</w>
apoyada</w>
apoyado</w>
apoyando</w>
apoyar</w>
apoyarse</w>
apoyándose</w>
apoyó</w>
apr
apre
apreci
apreciar</w>
apreh
aprehender</w>
aprend
aprende</w>
aprender</w>
aprendi
aprendido</w>
apresur
apretaba</w>
apretando</w>
apretándole</w>
apretándose</w>
apretó</w>
apri
aprieta</w>
apro
apropi
apropiado</w>
aprove
aprovech
aprovechaba</w>
aprovechando</w>
aprovechar</w>
apuesta</w>
apun
apur
apuro</w>
apéndice</w>
aqu
aque</w>
aquel</w>
aquella</w>
aquello</w>
aquellos</w>
aqui
aquí</w>
ar
ar</w>
ara</w>
aran</w>
aras</w>
arañ
araña</w>
arañas</w>
arcadi
archi
archivo</w>
arci
arco</w>
arcoiris</w>
ard
ard</w>
arde</w>
ardiendo</w>
are</w>
aremos</w>
arena</w>
ares</w>
arg
argel
argent
argentina</w>
argentino</w>
argentinos</w>
argu
ari
aria</w>
ariamente</w>
ariane</w>
arias</w>
aridad</w>
ario</w>
arios</w>
arismo</w>
arito</w>
arla</w>
arlas</w>
arle</w>
arles</w>
arlo</w>
arlos</w>
arlt</w>
arm
arma</w>
armada</w>
armado</w>
armados</w>
armar</w>
armario</w>
armas</w>
arme</w>
armente</w>
armon
armoni
armonía</w>
armstrong</w>
armó</w>
arnos</w>
aro</w>
aron</w>
arpa</w>
arque
arqui
arquitec
arr
arra
arran
arranca</w>
arrancaba</w>
arrancado</w>
arrancando</w>
arrancar</w>
arrancó</w>
arranque</w>
arras
arras</w>
arrastr
arrastraba</w>
arrastrando</w>
arrastre</w>
arre
arreb
arrebat
arreg
arregl
arregla</w>
arreglado</w>
arreglan</w>
arreglar
arreglar</w>
arreglo</w>
arri
arriba</w>
arries
arro
arrol
arroll
arroz</w>
arru
arruin
arry</w>
arse</w>
art</w>
arte
arte</w>
artefacto</w>
arteri
artes</w>
arti
articul
artificial</w>
artificio</w>
artista</w>
artistas</w>
arts</w>
artí
artículo</w>
artículos</w>
ary</w>
ará</w>
arán</w>
arás</w>
aré</w>
aría</w>
aríamos</w>
arían</w>
arías</w>
as
as</w>
asa</w>
asado</w>
asc
ascen
ascensor</w>
asco</w>
ase
ase</w>
asegur
asent
ases
ases</w>
asesin
asesino</w>
asfixi
asi
asienta</w>
asiento</w>
asientos</w>
asimi
asimil
asin
asis</w>
asist
asistentes</w>
asisti
asistir</w>
asma</w>
aso</w>
asoci
asom
asoma</w>
asomaba</w>
asomar</w>
asomarme</w>
asomarse</w>
asombr
asombra</w>
asombrado</w>
asombro</w>
asomo</w>
asomándose</w>
asomó</w>
asos</w>
aspe
aspecto</w>
aspir
aspirina</w>
asquer
asqueroso</w>
asta</w>
aste</w>
asto</w>
astr
astre</w>
astron
astronómi
astros</w>
astu
astucia</w>
asu
asun
asunto</w>
asust
así</w>
at
at</w>
ata
ata</w>
atac
atacado</w>
atacar</w>
atado</w>
atamente</w>
ataque</w>
atar
atardecer</w>
atas</w>
ataú
ataúd</w>
ate</w>
atenci
atención</w>
atender</w>
atenta</w>
atentamente</w>
aterr
ates</w>
atestada</w>
atez</w>
ati
ati</w>
atin
atina</w>
atis
ativa</w>
ativamente</w>
ativas</w>
ativo</w>
ativos</w>
atmósfera</w>
ato
ato</w>
ator
atoria</w>
atorio</w>
atos</w>
atr
atra
atrav
atre
atreverse</w>
atribu
atriz</w>
atro
atro</w>
atrás</w>
atu
atur
atura</w>
aturas</w>
ató</w>
au
au</w>
aud</w>
audi
audición</w>
aument
aumentar</w>
aun
aun</w>
aunque</w>
aur
aus
auscul
ausencia</w>
ausente</w>
austr
aut
auto
auto</w>
autobuses</w>
autom
automóvil</w>
automóviles</w>
autopista</w>
autor</w>
autores</w>
autori
autoridades</w>
autos</w>
autén
auténtica</w>
autó
aux</w>
auxi
av
ava</w>
avan
avance</w>
avanza</w>
avanzaba</w>
avanzado</w>
avanzando</w>
avanzar</w>
avanzó</w>
ave
ave</w>
avenida</w>
avent
aventura</w>
aventuras</w>
aver
avera</w>
avergon
averigu
avi
avidez</w>
avio</w>
aviones</w>
avis
avisar</w>
avisarle</w>
avisos</w>
avión</w>
avo
avoir</w>
aw
away</w>
axi
ay
ay</w>
aya</w>
ayer</w>
ayo</w>
ayos</w>
ayu
ayud
ayuda</w>
ayudaba</w>
ayudan</w>
ayudar
ayudar</w>
ayudó</w>
az
aza</w>
azar</w>
azas</w>
azo</w>
azones</w>
azos</w>
azu
azul</w>
azules</w>
azur</w>
azón</w>
azúcar</w>
añ
aña</w>
añas</w>
año</w>
años</w>
aún</w>
b
b</w>
ba
ba</w>
bab
baba</w>
babs</w>
baby</w>
babylone</w>
back</w>
bado</w>
bag
bah</w>
bai
bail
baila</w>
bailaba</w>
bailaban</w>
bailando</w>
bailar
bailar</w>
baile</w>
bailes</w>
baj
baja</w>
bajaba</w>
bajaban</w>
bajado</w>
bajamos</w>
bajan</w>
bajando</w>
bajar</w>
bajarse</w>
bajas</w>
bajito</w>
bajo</w>
bajos</w>
bajó</w>
bal
balance
balance</w>
balanceaba</w>
balanza</w>
balbuce
balbuceo</w>
balcón</w>
baldosa</w>
baldosas</w>
baldío</w>
baldíos</w>
balzac</w>
bam
bambalinas</w>
bamos</w>
ban
banco</w>
bancos</w>
band
banda</w>
bandeja</w>
bandejas</w>
bandera</w>
bando</w>
bang</w>
banos</w>
bar
bar</w>
bara</w>
barack</w>
baraja</w>
barajas</w>
barata</w>
baratas</w>
barato</w>
barb
barbaridad</w>
barco</w>
barcos</w>
bardo</w>
barr
barran
barrera</w>
barri
barriga</w>
barrio</w>
barrios</w>
barro
barro</w>
bas
bas</w>
base</w>
basta</w>
bastaba</w>
bastado</w>
bastante</w>
bastar
basti
bastidores</w>
basur
basura</w>
bat
bata
bata</w>
batalla</w>
batata</w>
bate</w>
bati
bau
baud</w>
bañ
bañadera</w>
bañarse</w>
baño</w>
baños</w>
be
be</w>
beau
beaulieu</w>
beautiful</w>
beb
bebe</w>
beber
beber</w>
bebi
bebida</w>
bebidas</w>
bebido</w>
bebiendo</w>
bebió</w>
bebé</w>
bebía</w>
bec
bel
bell
bella</w>
bellas</w>
belleza</w>
bello</w>
bemol</w>
ben
ben</w>
bene
benevol
ber
ber</w>
berg
berg</w>
bergman</w>
bern
beros</w>
berri
berridos</w>
bert
bert</w>
berthe</w>
berto</w>
bes
bes</w>
besar</w>
besarla</w>
besarse</w>
beso</w>
besos</w>
bessie</w>
besti
bestia</w>
besó</w>
bet
bi
bia</w>
bibli
bibliot
biblioteca</w>
bibliotecas</w>
bicho</w>
bicicle
bicicleta</w>
bicicletas</w>
bida</w>
bido</w>
bidos</w>
bien</w>
biendo</w>
bienven
bierto</w>
bife</w>
big</w>
bigo
bilidad</w>
bill</w>
billa</w>
bille
billetes</w>
bin
bio</w>
biom
bios</w>
bir
bir</w>
birome</w>
bis
bisi
bita</w>
bix</w>
bizca</w>
bió
bió</w>
bl
bla</w>
blan
blanca</w>
blancas</w>
blanco</w>
blancos</w>
bland
blanda</w>
blandamente</w>
blando</w>
blanque
blas
blas</w>
ble
ble</w>
blemente</w>
bles</w>
bli
blo
bloque</w>
blu
blues</w>
bo
bo</w>
bob</w>
boca</w>
bocado</w>
bocan
bocas</w>
bocinas</w>
body</w>
bofet
bofetada</w>
bofetadas</w>
bohar
bohardilla</w>
bol
bol</w>
bola</w>
bole
boletín</w>
boli
bolsa</w>
bolsillo</w>
bolsillos</w>
bolso</w>
bom
bomberos</w>
bombilla</w>
bon
bondad
bondad</w>
boni
bonifaz</w>
bonita</w>
bonitas</w>
bonito</w>
bor
bord
borde</w>
bordes</w>
bordo</w>
bori
borr
borra
borra</w>
borrach
borracha</w>
borrachera</w>
borracho</w>
borrado</w>
bos
bos</w>
bosque</w>
bost
bosta</w>
bostez
bostezando</w>
bot
botella</w>
botellas</w>
boti
botones</w>
botón</w>
bou
boulevard</w>
bour
box</w>
bozo</w>
br
bra</w>
brahms</w>
brar</w>
bras</w>
brasa</w>
brasi
brasil</w>
brav
brazo</w>
brazos</w>
bre
bre</w>
breci
bres</w>
brev
breve</w>
brevemente</w>
bri
brill
brilla</w>
brillaba</w>
brillaban</w>
brillante</w>
brillantes</w>
brin
brisa</w>
bro
broma</w>
bromas</w>
bron
bronce</w>
brow
bru
brus
brusca</w>
bruscamente</w>
brusco</w>
bruscos</w>
brutalmente</w>
bruto</w>
bu
buen</w>
buena</w>
buenas</w>
bueno</w>
buenos</w>
buf
bul
bula</w>
bulev
bulevar</w>
bulo</w>
bulto</w>
bun
bur
burbu
burbujas</w>
burgu
burl
burla</w>
burrada</w>
bursá
burzaco</w>
bus
bus</w>
busc
busca</w>
buscaba</w>
buscaban</w>
buscan</w>
buscando</w>
buscar
buscar</w>
buscarle</w>
buscarlo</w>
busco</w>
buscás</w>
buscó</w>
buses</w>
but
but</w>
bye</w>
bá
bár
bárbar
bé
bó
bó</w>
bón</w>
bú
búsqueda</w>
c
c</w>
ca
ca</w>
cab
caba</w>
cabal
caball
caballero</w>
caballería</w>
caballo</w>
caballos</w>
caban</w>
cabaret</w>
cabarets</w>
cabe</w>
cabellos</w>
cabeza</w>
cabezas</w>
cable</w>
cables</w>
cabo</w>
cabía</w>
caca</w>
cacar
cacer
cach
caciones</w>
cación</w>
cad
cada</w>
cadamente</w>
cadas</w>
cadav
cadena</w>
cadenas</w>
cadencioso</w>
cadi
cado</w>
cador</w>
cadores</w>
cados</w>
cadáver</w>
cadáveres</w>
cae</w>
caen</w>
caer</w>
caerse</w>
caf
café</w>
cafés</w>
cai
caiga</w>
caj
caja</w>
cajas</w>
cajón</w>
cal
cal</w>
calcu
calcul
calculando</w>
calcular</w>
calculista</w>
calculó</w>
calefacción</w>
calent
cales</w>
cali
calidad</w>
calidoscopio</w>
caliente</w>
calificación</w>
calip
call
callado</w>
callados</w>
callar</w>
callara</w>
callarse</w>
calle
calle</w>
callej
callejuelas</w>
callejón</w>
calles</w>
calma</w>
calmar
calor</w>
calzar</w>
calzó</w>
cam
cama</w>
camar
camas</w>
cambi
cambia</w>
cambiaba</w>
cambiado</w>
cambian</w>
cambiando</w>
cambiar</w>
cambio</w>
cambios</w>
cambió</w>
camellos</w>
camente</w>
cami
camilla</w>
camillero</w>
camilleros</w>
camin
caminando</w>
caminar</w>
camino</w>
caminos</w>
camis
camisa</w>
camiseta</w>
camisón</w>
camión</w>
camos</w>
camp
campesino</w>
campesinos</w>
campo</w>
campos</w>
camusso</w>
can
can</w>
cana</w>
canadiense</w>
canalla</w>
canario</w>
canasta</w>
canasto</w>
cancha</w>
canciones</w>
canción</w>
candid
candidato</w>
cando</w>
cangre
canilla</w>
cano</w>
cans
cansada</w>
cansadamente</w>
cansado</w>
cansan
cansancio</w>
cant
canta</w>
cantaba</w>
cantan</w>
cantando</w>
cantante</w>
cantar</w>
cantara</w>
cante</w>
cantidad</w>
cantimpl
cantina</w>
canto</w>
canturre
canturreaba</w>
caoba</w>
cap
capa</w>
capaces</w>
capas</w>
capaz</w>
capi
capital</w>
capitán</w>
capri
caprichos</w>
capt
capí
capítulo</w>
car
car</w>
cara
cara</w>
carac
caraco
caracol</w>
caracter
carajo</w>
carame
caramelos</w>
caran</w>
caras</w>
caravelle</w>
carcajada</w>
carcajadas</w>
carga</w>
cargar</w>
cargo</w>
cari
caria</w>
cariamente</w>
caricia</w>
caricias</w>
caridad</w>
cario</w>
cariño</w>
carla</w>
carle</w>
carlo</w>
carlos</w>
carme</w>
carn
carnales</w>
carnav
carnaval</w>
carne</w>
caro</w>
caron</w>
carpa</w>
carpe
carpeta</w>
carpetas</w>
carpin
carr
carre
carrera</w>
carreras</w>
carretera</w>
carri
carse</w>
carta</w>
cartas</w>
carteles</w>
cartera</w>
cartón</w>
cará
carácter</w>
caría</w>
cas
cas</w>
casa</w>
casas</w>
casi</w>
casilla</w>
casillas</w>
casinos</w>
caso
caso</w>
casoar</w>
casos</w>
caste</w>
casti
castigo</w>
castillo</w>
casu
casual</w>
casualidad</w>
cat
cata
catac
cate
cate</w>
categor
categorías</w>
cato
cato</w>
catorce</w>
catoria</w>
catástrofe</w>
catástrofes</w>
cau
caus
causa</w>
cause</w>
caver
caverna</w>
cay
cayendo</w>
cayera</w>
cayó</w>
caz
caz</w>
caza</w>
cazar</w>
caés</w>
caí
caía</w>
caían</w>
caída</w>
caído</w>
cañ
caña</w>
cañería</w>
caño</w>
caños</w>
cciones</w>
cción</w>
ce
ce</w>
cea</w>
ceb
cebando</w>
cebar</w>
cebó</w>
ced
cede</w>
ceder</w>
cedi
cediendo</w>
cedrón</w>
cedía</w>
cefe</w>
ceferino</w>
cegu
cel
cel</w>
cele
celeste</w>
celos</w>
celosa</w>
celular</w>
cem
cement
cementerio</w>
cemos</w>
cen
cen</w>
cena</w>
cenar</w>
ceni
cenicero</w>
ceniciento</w>
ceniza</w>
censura</w>
cent
centav
centavos</w>
centen
centenares</w>
centr
central</w>
centrismo</w>
centro</w>
centímetro</w>
centímetros</w>
cepi
cepillo</w>
cepti
cer
cer</w>
cera</w>
ceras</w>
cerca</w>
cercan
cercanía</w>
cerebr
cerebro</w>
ceremoni
ceremonia</w>
ceremonias</w>
cerle</w>
cero</w>
cerr
cerraba</w>
cerrada</w>
cerrado</w>
cerrados</w>
cerrando</w>
cerrar</w>
cerrarse</w>
cerro</w>
cerrándose</w>
cerró</w>
cerse</w>
certe
certeza</w>
certi
certidumbre</w>
cerve
cerveza</w>
ces
ces</w>
cesado</w>
cesi
cesión</w>
ceso</w>
cesos</w>
ch
ch</w>
cha
cha</w>
chada</w>
chado</w>
chados</w>
chale
chaleco</w>
cham
chan
chan</w>
chant
chaqueta</w>
char
char</w>
charco</w>
charla</w>
charlando</w>
charlar</w>
chas
chas</w>
chau</w>
che
che</w>
cher</w>
chero</w>
ches</w>
chi
chi</w>
chica</w>
chicas</w>
chico</w>
chicos</w>
chil
chill
chillidos</w>
chim
chimen
chimenea</w>
china</w>
chino</w>
chiqui
chiquita</w>
chirri
chis
chispas</w>
chito</w>
chitos</w>
chivas</w>
chivi
chivito</w>
cho
cho</w>
choque</w>
chor
chorre
chorreando</w>
chorrito</w>
chorro</w>
chos</w>
chu
chupando</w>
chupó</w>
ci
cia</w>
cial</w>
ciales</w>
cias</w>
cicli
ciclo</w>
cida</w>
cidad</w>
cident
cido</w>
cidos</w>
cie
ciedad</w>
ciego</w>
ciegos</w>
cielo</w>
cien</w>
ciencia</w>
ciencias</w>
ciendo</w>
cient
cientas</w>
ciento</w>
cientos</w>
científi
científico</w>
científicos</w>
cier
cierra</w>
cierre</w>
cierta</w>
ciertas</w>
cierto</w>
ciertos</w>
cifr
cifra</w>
cifras</w>
cig
cigar
cigarrillo</w>
cigarrillos</w>
cigarro</w>
cigarros</w>
cil</w>
cill
cima</w>
cimiento</w>
cin
cina</w>
cinamomo</w>
cinas</w>
cinco</w>
cincuenta</w>
cine</w>
cineasta</w>
cines</w>
cino</w>
cinta</w>
cintura</w>
cinturón</w>
cio</w>
cion
ciona</w>
cionado</w>
cional</w>
cionales</w>
cionar</w>
ciones</w>
cios</w>
cir
cir</w>
circo</w>
circui
circul
circulación</w>
circular</w>
circun
circunstancia</w>
circunstancias</w>
cis
cisco</w>
cismo</w>
cisne</w>
cita</w>
citar</w>
citas</w>
cito</w>
citos</w>
ciu
ciudad
ciudad</w>
ciudadano</w>
ciudades</w>
civi
civil</w>
civiliz
civilización</w>
cién
ciénaga</w>
ción</w>
ck
ck</w>
ckets</w>
cl
clam
clandest
clandestino</w>
clar
clara</w>
claraboya</w>
claramente</w>
claras</w>
claridad</w>
claro</w>
clase</w>
clases</w>
clasi
clasifi
clau
claudine</w>
clav
clava</w>
clavada</w>
clavado</w>
clavados</w>
clavando</w>
clave</w>
clavo</w>
clavos</w>
cle
clei
cleicos</w>
clelia</w>
cler
cli
click</w>
cliente</w>
clientela</w>
clientes</w>
clin
clina</w>
clo
clochar
clochard</w>
clocharde</w>
clochards</w>
clu
club</w>
clási
clásica</w>
clásico</w>
clí
clínica</w>
co
co</w>
coagu
coal
coaltar</w>
cobert
cobertor</w>
cobr
coch
coche</w>
coches</w>
cocin
cocina</w>
cocinero</w>
coco
coco</w>
cocotero</w>
codo</w>
cogo
cogote</w>
coher
coherencia</w>
coherente</w>
cohete</w>
coinci
coincide</w>
coincidencia</w>
col
cola</w>
colabor
colch
colcha</w>
cole
colecciones</w>
colección</w>
colecti
colectivo</w>
colegio</w>
colg
colgaba</w>
colgada</w>
colgando</w>
colgar</w>
colgó</w>
coli
colina</w>
colinas</w>
collar</w>
colmo</w>
colo
colocar</w>
colonia</w>
color
color</w>
colorada</w>
coloradas</w>
colorado</w>
colores</w>
colum
columna</w>
columnas</w>
coló
colón</w>
com
combin
come
come</w>
comedia</w>
comedor</w>
comen
comen</w>
comensales</w>
coment
comentar</w>
comentario</w>
comentarios</w>
comer
comer</w>
comercio</w>
comi
comida</w>
comiendo</w>
comio</w>
comis
comisaría</w>
comision
comisionados</w>
comisión</w>
comité</w>
comme</w>
como</w>
comodi
comodidad</w>
comp
compad
compar
comparable</w>
comparación</w>
comparar</w>
comparti
compartir</w>
compañ
compañero</w>
compañeros</w>
compañía</w>
compe
compl
complac
comple
complejo</w>
completa</w>
completamente</w>
completar</w>
completo</w>
compli
complicada</w>
componer</w>
comport
comportamiento</w>
composición</w>
compr
compra</w>
comprado</w>
comprar</w>
comprarle</w>
compras</w>
compren
comprend
comprende</w>
comprenden</w>
comprender
comprender</w>
comprenderás</w>
comprendi
comprendido</w>
comprendiendo</w>
comprendió</w>
comprendo</w>
comprendé</w>
comprendés</w>
comprendía</w>
comprendían</w>
comprensi
comprensible</w>
comprensión</w>
compresa</w>
compro
comprobar</w>
compuesto</w>
compás</w>
comunes</w>
comuni
comunicaciones</w>
comunicación</w>
comunidad</w>
comunistas</w>
común</w>
con
con</w>
conc
conce
conceb
concebi
concebir</w>
concedió</w>
concentr
concentración</w>
concentrarse</w>
concep
concepto</w>
conci
conciencia</w>
concierto</w>
conciertos</w>
concili
conciliación</w>
conclu
concre
concreto</w>
conden
condenada</w>
condenado</w>
condenados</w>
condesc
condescendió</w>
condi
condiciones</w>
condición</w>
condu
conducta</w>
conductas</w>
conductor</w>
conec
conej
conf
confer
conferencia</w>
confes
confesión</w>
confi
confiaba</w>
confianza</w>
confid
confirm
confirmación</w>
conflicto</w>
confor
confu
confun
confusa</w>
confusamente</w>
confusiones</w>
confusión</w>
confuso</w>
congel
congelación</w>
congelada</w>
conjet
conjunto</w>
conmigo</w>
conmo
conmove
conmovido</w>
cono
conoc
conoce</w>
conocemos</w>
conocen</w>
conocer
conocer</w>
conoci
conocida</w>
conocido</w>
conocidos</w>
conocimiento</w>
conoció</w>
conocés</w>
conocí</w>
conocía</w>
conocíamos</w>
conocían</w>
conozco</w>
conqui
conquist
conquista</w>
consciente</w>
conse
consecu
consecuencia</w>
consecuencias</w>
consegu
conseguido</w>
conseguir</w>
conseguía</w>
consejo</w>
consejos</w>
conserv
consi
consider
considera</w>
considerablemente</w>
consigo</w>
consigue</w>
consiguió</w>
consist
consiste</w>
consistía</w>
consol
consolarlo</w>
const
constel
constelaciones</w>
constitu
constituye</w>
constru
construcción</w>
consuelo</w>
consul
consulta</w>
consultorio</w>
consum
consumación</w>
cont
contaba</w>
contaban</w>
contacto</w>
contactos</w>
contado</w>
contagi
contagio</w>
contamin
contando</w>
contar</w>
contarle</w>
contaste</w>
contempl
contemplación</w>
contemplar</w>
contempor
contemporánea</w>
conten
contenida</w>
contenido</w>
content
contenta</w>
contento</w>
contentos</w>
contest
contesta</w>
contestaba</w>
contestar</w>
contestara</w>
contestó</w>
contiene</w>
contienen</w>
contin
continu
continua</w>
continuaba</w>
continuación</w>
continuamente</w>
continuar</w>
continuo</w>
contr
contra
contra</w>
contracción</w>
contradi
contradicción</w>
contradict
contradictorias</w>
contradictorio</w>
contrario</w>
contrato</w>
contribu
contro
control
conté</w>
contó</w>
conven
convencer
convencer</w>
convencerme</w>
convencerse</w>
convenci
convencida</w>
convencido</w>
convencidos</w>
convenido</w>
conver
convers
conversaciones</w>
conversación</w>
convertido</w>
convi
convicción</w>
conviene</w>
convierte</w>
convul
cool</w>
copa</w>
copain</w>
copas</w>
copi
copio</w>
cor
cora</w>
corazón</w>
corbeil</w>
cord
corderi
cordones</w>
cordón</w>
corne
corneta</w>
cornio</w>
coronel</w>
corpi
corpor
corporaciones</w>
corporación</w>
corr
corre
corre</w>
corredor</w>
correla
correo</w>
correos</w>
correr</w>
correspon
corresponde</w>
correspondencia</w>
correspondiente</w>
correspondía</w>
corri
corriendo</w>
corriente</w>
corrientes</w>
corrieron</w>
corrió</w>
corro
corro</w>
corrobor
corría</w>
corrían</w>
corso</w>
cort
corta</w>
cortando</w>
cortaplumas</w>
cortar</w>
corte</w>
cortes</w>
cortesía</w>
cortina</w>
cortinas</w>
corto</w>
cortó</w>
cos
cos</w>
cosa</w>
cosas</w>
coser</w>
cosidad</w>
cosmos</w>
coso</w>
cosqui
cosquilla</w>
cosquillas</w>
cost
costa</w>
costaba</w>
costado</w>
costar</w>
costillas</w>
costra</w>
costum
costumbre</w>
costumbres</w>
costó</w>
cot
cotidi
cotidiano</w>
cotiz
cou
coucher</w>
cour
cour</w>
coñac</w>
coño</w>
cr
cre
crea</w>
creación</w>
crean</w>
creas</w>
crece</w>
crecer</w>
creci
crecido</w>
creciendo</w>
crecía</w>
cree</w>
creeme</w>
creemos</w>
creen</w>
creer</w>
creerlo</w>
creerse</w>
crees</w>
creo</w>
crepi
crepús
crepúsculo</w>
cres
crespo</w>
cresta</w>
cretin
cretino</w>
cretinos</w>
crevel</w>
creyendo</w>
creyera</w>
creyó</w>
creés</w>
creí</w>
creía</w>
creído</w>
cri
criatura</w>
criaturas</w>
criol
cris
crisis</w>
crisp
crist
cristal
cristal</w>
cristales</w>
cristalización</w>
cristo</w>
cro
cro</w>
crom
cron
cronopio</w>
cronopios</w>
cru
cruz
cruz</w>
cruzaba</w>
cruzar</w>
crá
crème</w>
cré
créame</w>
crí
cría</w>
crítica</w>
críticas</w>
ct
cta</w>
ctas</w>
cti
ctica</w>
ctiva</w>
cto</w>
ctor</w>
ctores</w>
ctos</w>
cu
cua</w>
cuad
cuader
cuaderno</w>
cuadr
cuadra</w>
cuadrados</w>
cuadras</w>
cuadro</w>
cuadros</w>
cuaj
cual</w>
cuales</w>
cualquier</w>
cualquiera</w>
cuando</w>
cuantas</w>
cuanto</w>
cuar
cuarenta</w>
cuarta</w>
cuarteto</w>
cuarto</w>
cuartos</w>
cuatro</w>
cuatrocientos</w>
cub
cub</w>
cubi
cubierta</w>
cubiertas</w>
cubierto</w>
cubo</w>
cubr
cubre</w>
cubri
cuca</w>
cucara
cucarachas</w>
cuch
cuchar
cuchara</w>
cucharada</w>
cucharita</w>
cucheta</w>
cuchi
cuchillo</w>
cuel
cuello</w>
cuenta</w>
cuentas</w>
cuento</w>
cuentos</w>
cuer
cuerda</w>
cuerdos</w>
cuerno</w>
cuernos</w>
cuero</w>
cuerpo</w>
cuerpos</w>
cuesta</w>
cueste</w>
cuesti
cuestión</w>
cueva</w>
cui
cuidad</w>
cuidado</w>
cuidando</w>
cuidar</w>
cul
cul</w>
cula</w>
cular</w>
culito</w>
cull
culmin
culo</w>
culos</w>
culp
culpa</w>
culpable</w>
culto</w>
cultura</w>
cum
cumpl
cumple</w>
cumpleaños</w>
cumpli
cumplido</w>
cumplir</w>
cumplían</w>
cun
cur
cura</w>
curarse</w>
curi
curiosamente</w>
curiosidad</w>
curioso</w>
curiosos</w>
curo</w>
curr
curso</w>
cursos</w>
curva</w>
cuya</w>
cuyo</w>
cuyos</w>
cuál</w>
cuáles</w>
cuándo</w>
cuánta</w>
cuántas</w>
cuánto</w>
cuántos</w>
cá
cál
cálculos</w>
cámara</w>
cán
cáncer</w>
cándose</w>
cár
cárcel</w>
cátala</w>
cé
cé</w>
cél
céle
célestin</w>
célu
células</w>
cérises</w>
césar</w>
césped</w>
cí
cía</w>
cían</w>
cías</w>
cír
círculo</w>
có
có</w>
cólera</w>
cómo</w>
cómoda</w>
cómodamente</w>
cómodo</w>
cómplice</w>
cómplices</w>
cón</w>
cóndor</w>
cónsul</w>
cór
córdoba</w>
cós
cú
d
d</w>
da</w>
daba</w>
daban</w>
dación</w>
dad
dad</w>
dada</w>
dadas</w>
dades</w>
dado</w>
dadora</w>
dadores</w>
dados</w>
dal
dal</w>
dale</w>
dalena</w>
dam
dama</w>
dame</w>
damente</w>
damn</w>
damos</w>
dan
dan</w>
dando</w>
dans</w>
dante</w>
danza</w>
dar
dar</w>
darle</w>
darles</w>
darme</w>
darse</w>
darte</w>
dará</w>
daré</w>
daría</w>
darían</w>
das</w>
date</w>
dau
dauphine</w>
dav
day</w>
daño</w>
de
de</w>
dear</w>
deb
debajo</w>
debe</w>
deben</w>
deber
deber</w>
debería</w>
deberían</w>
deberías</w>
debi
debido</w>
debieron</w>
debilidad</w>
debió</w>
debo</w>
debía</w>
debían</w>
dec
decencia</w>
decep
decer</w>
deci
decide</w>
decidido</w>
decidieron</w>
decidió</w>
decidía</w>
decile</w>
decime</w>
decir
decir</w>
decirlas</w>
decirle</w>
decirles</w>
decirlo</w>
decirme</w>
decirse</w>
decirte</w>
decisión</w>
declar
declarado</w>
decor
decía</w>
decías</w>
decír
decírselo</w>
decís</w>
dedi
dedo</w>
dedor</w>
dedos</w>
dedu
def
defec
defecto</w>
defen
defender
defender</w>
defendiendo</w>
defensa</w>
defensas</w>
defensi
defin
defini
definición</w>
definido</w>
definitiva</w>
definitivamente</w>
dej
deja</w>
dejaba</w>
dejaban</w>
dejado</w>
dejala</w>
dejame</w>
dejan</w>
dejando</w>
dejar</w>
dejara</w>
dejarla</w>
dejarlo</w>
dejaron</w>
dejarse</w>
dejará</w>
dejaría</w>
deje</w>
dejemos</w>
dejen</w>
dejes</w>
dejo</w>
dejá</w>
dejándose</w>
dejás</w>
dejó</w>
del
del</w>
delant
delantal</w>
delante</w>
dele
delegación</w>
delegados</w>
delgada</w>
deli
delia</w>
deliber
deliberadamente</w>
delicad
delicada</w>
delicadamente</w>
delicadas</w>
delicadeza</w>
delicado</w>
delicados</w>
delici
delicia</w>
delicias</w>
deliciosa</w>
deliciosamente</w>
delicioso</w>
delir
delirio</w>
dem
demasi
demasiada</w>
demasiado</w>
demonio</w>
demonios</w>
demor
demos</w>
demostr
demás</w>
den
den</w>
denal</w>
dencia</w>
dencias</w>
denomin
dent
dente</w>
dentes</w>
dentista</w>
dentro</w>
dentífrica</w>
dentífrico</w>
denunci
deos</w>
depar
departamento</w>
departamentos</w>
depen
depende</w>
dependencias</w>
depl
deplor
depor
depri
depósito</w>
der
der</w>
dera</w>
deras</w>
derecha</w>
derecho</w>
derechos</w>
deri
derram
derro
derrota</w>
derse</w>
des
des</w>
desa
desaboton
desaf
desafi
desafor
desagradaba</w>
desagradable</w>
desaparecen</w>
desaparecido</w>
desapareció</w>
desarrol
desarrollo</w>
desat
desbord
desc
descal
descan
descans
descansando</w>
descansar</w>
descanso</w>
descar
descen
descender</w>
descenso</w>
desci
desciende</w>
descifr
descon
desconcer
desconcertada</w>
desconcierto</w>
desconfi
desconfianza</w>
desconocido</w>
descri
descripción</w>
descripti
descu
descubierto</w>
descubr
descubre</w>
descubri
descubrimiento</w>
descubrir</w>
descubrió</w>
descubrí</w>
descubría</w>
descui
descuido</w>
desde
desde</w>
desdeñ
desdi
dese
dese</w>
deseado</w>
desear</w>
desembar
desembarco</w>
desembo
desempeñ
desen
desencaden
desencanto</w>
desenlace</w>
deseo</w>
desesper
desesperación</w>
desesperada</w>
desesperadamente</w>
desesperado</w>
desg
desgan
desgarr
desgracia</w>
desi
desierta</w>
design
designar</w>
desliz
deslum
deslumbr
deslumbrado</w>
deslumbrante</w>
desmay
desmayos</w>
desnu
desnuda</w>
desnudo</w>
desnudos</w>
desol
desorden</w>
desp
despa
despacho</w>
despacio</w>
despacito</w>
desparram
despe
despedi
despedida</w>
despedir
despej
desper
despertaba</w>
despertado</w>
despertar</w>
despertarse</w>
desperté</w>
despertó</w>
despi
despierto</w>
desplaz
despr
despreci
desprecio</w>
después</w>
dest
destempl
desti
destin
destinado</w>
destinat
destinatario</w>
destino</w>
destro
destru
destrucción</w>
desvi
det
detal
detalle</w>
detalles</w>
detectives</w>
deten
detención</w>
detenerse</w>
detenido</w>
deteniéndose</w>
determin
detrás</w>
detuvo</w>
deu
deudos</w>
deux</w>
devolver</w>
devolvió</w>
devolvía</w>
devuelve</w>
dez</w>
di
di</w>
dia</w>
diablo</w>
diablos</w>
diabó
diabólico</w>
diagnóstico</w>
dial
dial</w>
dialécti
dialéctica</w>
dialéctico</w>
diana</w>
diario</w>
diarios</w>
dible</w>
dibu
dibuj
dibuja</w>
dibujaba</w>
dibujando</w>
dibujar</w>
dibujarse</w>
dibujo</w>
dibujos</w>
dic
dica</w>
dicaciones</w>
dicamente</w>
diccionario</w>
diccionarios</w>
dice</w>
dicen</w>
dicha</w>
dicho</w>
dici
diciendo</w>
diciéndole</w>
dico</w>
dicos</w>
dicotom
dicotomías</w>
dict
dicta</w>
did
dida</w>
didamente</w>
didas</w>
dido</w>
didos</w>
die</w>
dieci
dieciocho</w>
diendo</w>
diente</w>
dientes</w>
diera</w>
dieran</w>
dieron</w>
diez</w>
difer
diferencia</w>
diferencias</w>
diferente</w>
diferentes</w>
difi
dificul
dificultad</w>
dificultades</w>
difun
difunto</w>
difíci
difícil</w>
difíciles</w>
dig
diga</w>
digamos</w>
digas</w>
digesti
dign
digna</w>
dignidad</w>
digno</w>
digo</w>
dij
dije</w>
dijera</w>
dijeron</w>
dijese</w>
dijiste</w>
dijo</w>
dilig
dilla</w>
dilu
dimen
dimensiones</w>
dimos</w>
din
din</w>
dinero</w>
dio</w>
dios
dios</w>
diosa</w>
dioses</w>
diplom
diploma</w>
diputado</w>
dir
dir</w>
dire
dire</w>
direcciones</w>
dirección</w>
direct
directamente</w>
director</w>
diri
dirse</w>
dirá</w>
diría</w>
dis
dis</w>
disco</w>
discos</w>
discre
discu
discul
disculp
disculpas</w>
discurso</w>
discursos</w>
discusiones</w>
discusión</w>
discuti
discutido</w>
discutiendo</w>
discutir</w>
discutían</w>
discípu
discípulos</w>
dise
diser
disfraz
disimu
disimul
disimula</w>
disimular</w>
disminu
dismo</w>
disol
disolvi
disper
disponi
disposición</w>
dispuesto</w>
dist
dista</w>
distancia</w>
distancias</w>
distante</w>
diste</w>
distin
distingu
distinguir</w>
distintamente</w>
distintas</w>
distinto</w>
distintos</w>
distr
distra
distracción</w>
distraí
distraída</w>
distraídamente</w>
distribu
dito</w>
div
diver
diversas</w>
diversos</w>
divertido</w>
divertirse</w>
divertía</w>
divertían</w>
divi
divino</w>
diván</w>
diá
diálogo</w>
diálogos</w>
diéndose</w>
dió</w>
dkw</w>
do
do</w>
dobl
doble</w>
doce</w>
docena</w>
docenas</w>
doctor</w>
doctos</w>
documento</w>
documentos</w>
dod
dodds</w>
dol
doler</w>
doles</w>
dolor</w>
dolía</w>
dom
domici
domin
domingo</w>
domingos</w>
domini
dominio</w>
don
don</w>
donde</w>
done</w>
doppelgänger</w>
dor
dor</w>
dora</w>
dorada</w>
doradas</w>
dorado</w>
doras</w>
dores</w>
dorita</w>
dorm
dormida</w>
dormido</w>
dormir
dormir</w>
dormirse</w>
dormit
dormitorio</w>
dormí</w>
dormía</w>
dormían</w>
dos
dos</w>
doscientas</w>
doscientos</w>
dosis</w>
dotado</w>
dou
down</w>
doy</w>
doña</w>
dr
dram
drama</w>
dres</w>
dri
dro
drá
dría</w>
ds</w>
du
du</w>
ducha</w>
dud
duda</w>
dudas</w>
due
duele</w>
duelo</w>
duer
duerma</w>
duerme</w>
duermen</w>
duermo</w>
dueña</w>
dueño</w>
dueños</w>
dul
dulc
dulce</w>
dulcemente</w>
dulces</w>
dulo</w>
dumbre</w>
dur
dura</w>
duraba</w>
durante</w>
durar</w>
duras</w>
durmiendo</w>
duro</w>
duros</w>
duró</w>
dy</w>
dá
dándole</w>
dándonos</w>
dándose</w>
dé
dé</w>
débi
débil</w>
déci
déj
déjeme</w>
délibes</w>
dí
dí</w>
día</w>
dían</w>
días</w>
díos</w>
dísimo</w>
dó
dó</w>
dónde</w>
dós</w>
e
e</w>
ea</w>
eaba</w>
eaban</w>
eada</w>
eado</w>
eador</w>
eados</w>
eando</w>
ear
ear</w>
eau</w>
eb</w>
ebr
ebre</w>
ec
ecas</w>
ece</w>
ecen</w>
ecer</w>
ecerse</w>
ech
echa</w>
echaba</w>
echado</w>
echando</w>
echar
echar</w>
echarse</w>
echándose</w>
echó</w>
eci
ecido</w>
eciente</w>
ecita</w>
ecito</w>
eció</w>
econ
ecos</w>
ecto
ecu
ecía</w>
ed
ed</w>
edad</w>
edades</w>
edas</w>
edes</w>
edi
ediciones</w>
edición</w>
edificio</w>
edo</w>
edor</w>
edra</w>
edu
educación</w>
edén</w>
eet</w>
efecto</w>
efectos</w>
efi
efic
eficacia</w>
eficaz</w>
ega</w>
egip
egipcia</w>
ego
ego</w>
egoí
eh</w>
ej
eja</w>
ejas</w>
eje</w>
ejecu
ejempl
ejemplar</w>
ejemplares</w>
ejemplo</w>
ejemplos</w>
ejer
ejerci
ejercicio</w>
ejercicios</w>
ejo</w>
ejército</w>
el
el</w>
ela</w>
elas</w>
ele
ele</w>
elec
elección</w>
electr
electricidad</w>
elef
eleg
elegante</w>
elegantes</w>
elegida</w>
elegido</w>
elegir</w>
elegía</w>
elegían</w>
elem
elemental</w>
elemento</w>
elementos</w>
elen</w>
eles</w>
eli
elige</w>
eligen</w>
eligi
ell
ella</w>
ellas</w>
elle</w>
elles</w>
elli
elli</w>
ello</w>
ellos</w>
elo
elo</w>
elocu
elogi
elu
elá
elástico</w>
eléctri
em
em</w>
ema</w>
emas</w>
embaj
embal
embar
embargo</w>
embo
embocar</w>
embotellamiento</w>
embr
embre</w>
embu
embudo</w>
eme</w>
emente</w>
emerg
emi
emin
emios</w>
emmanu
emmanuèle</w>
emo
emocion
emocionada</w>
emoción</w>
emos</w>
emp
empa
empan
empanadas</w>
empap
empapado</w>
empe
empecin
empecinadamente</w>
empecé</w>
emper
empez
empezaba</w>
empezaban</w>
empezado</w>
empezamos</w>
empezando</w>
empezar</w>
empezara</w>
empezaran</w>
empezaron</w>
empezará</w>
empezás</w>
empezó</w>
empeñ
empi
empiece</w>
empieza</w>
empiezan</w>
empiezo</w>
empl
emple
empleado</w>
empleados</w>
empleo</w>
empobreci
empobrecimiento</w>
empor
empr
empresa</w>
empu
empuj
empujando</w>
empujar</w>
empujones</w>
empujó</w>
empujón</w>
en
en</w>
ena</w>
enam
enamor
enamorada</w>
enamorado</w>
enamorados</w>
enas</w>
enc
encad
encaden
encamin
encant
encanta</w>
encantaba</w>
encantador</w>
encanto</w>
encar
encargado</w>
ence</w>
encegu
encend
encender</w>
encendi
encendida</w>
encendido</w>
encendiendo</w>
encendieron</w>
encendió</w>
encendé</w>
encendía</w>
encendían</w>
encerrado</w>
enci
encia</w>
encial</w>
enciales</w>
encias</w>
enciclopedi
enciclopedia</w>
enciende</w>
encima</w>
encioso</w>
enco
encogi
encogió</w>
encontr
encontraba</w>
encontrado</w>
encontramos</w>
encontrar</w>
encontrara</w>
encontraremos</w>
encontrarlo</w>
encontrarnos</w>
encontraron</w>
encontrarse</w>
encontrará</w>
encontraría</w>
encontré</w>
encontró</w>
encor
encruci
encrucijada</w>
encu
encuentr
encuentra</w>
encuentran</w>
encuentro</w>
encuentros</w>
end
enda</w>
ende</w>
enden</w>
ender
ender</w>
enderez
enderezar</w>
enderezarse</w>
enderezándose</w>
enderezó</w>
enderse</w>
endi
endida</w>
endido</w>
endiendo</w>
endiéndose</w>
endió</w>
endo</w>
endía</w>
ene</w>
enemi
enemigo</w>
enemigos</w>
eneo</w>
enes</w>
enfer
enferma</w>
enfermedad</w>
enfermedades</w>
enfermera</w>
enfermeras</w>
enfermero</w>
enfermo</w>
enfermos</w>
enfo
enfr
enfrent
enfrente</w>
enfri
enfu
enfun
enfureci
enfurecido</w>
eng
engan
engañ
engaña</w>
engañar</w>
engaño</w>
eni
enig
enlace</w>
enlo
enne</w>
eno</w>
enoj
enojada</w>
enor
enorm
enorme</w>
enormemente</w>
enormes</w>
enos</w>
enre
enri
enriqu
ens</w>
ensa
ensa</w>
ensay
ensayar</w>
ensayo</w>
ense</w>
enseguida</w>
enses</w>
enseñ
enseña</w>
enseñado</w>
ensi
ent
ent</w>
enta</w>
entado</w>
ental</w>
entales</w>
entan</w>
entas</w>
ente</w>
entemente</w>
enten</w>
entend
entender
entender</w>
entendi
entendido</w>
entendimiento</w>
entendió</w>
entendés</w>
entendía</w>
entendían</w>
enter
entera</w>
enterado</w>
enterarse</w>
enteras</w>
enterne
enternec
entero</w>
enteros</w>
enterr
enteré</w>
entes</w>
enti
entiende</w>
entienden</w>
entiendo</w>
entierro</w>
entimiento</w>
ento</w>
enton
entonces</w>
entor
entorn
entornada</w>
entornados</w>
entornando</w>
entos</w>
entr
entra</w>
entraba</w>
entrada</w>
entrado</w>
entramos</w>
entran</w>
entrando</w>
entrar</w>
entrara</w>
entraría</w>
entrañ
entre
entre</w>
entreabierta</w>
entrecor
entrecortado</w>
entreg
entrega</w>
entregado</w>
entrever</w>
entrevi
entrevisión</w>
entri
entrist
entro</w>
entró</w>
entusias
entusiasmo</w>
enu
enumer
envenen
envi
envidi
envolvía</w>
envuelto</w>
envuelve</w>
enza</w>
enzo</w>
enér
enérgicamente</w>
eo</w>
epi
episodio</w>
episodios</w>
epí
equi
equilibri
equilibrio</w>
equipo</w>
equival
equivalente</w>
equivo
equivocación</w>
equivocado</w>
er
er</w>
era</w>
eral</w>
eramente</w>
eran</w>
eraria</w>
eras</w>
erda</w>
ere</w>
eres</w>
erg
ergo</w>
eri
eria</w>
erie</w>
erio</w>
erios</w>
erla</w>
erlas</w>
erle</w>
erlo</w>
erlos</w>
erme</w>
ermo</w>
ern
ernación</w>
erno</w>
ernos</w>
ernst</w>
ero</w>
eron</w>
eros</w>
err
erra</w>
erran</w>
erro</w>
error</w>
ers</w>
erse</w>
erta</w>
ertas</w>
erte</w>
erto</w>
ertos</w>
eru
erv
erva</w>
erá</w>
erán</w>
eré</w>
ería</w>
erían</w>
erías</w>
es
es</w>
esa</w>
esar</w>
esas</w>
esc
esca
esca</w>
escal
escala</w>
escalera</w>
escaleras</w>
escalón</w>
escam
escamote
escan
escand
escandal
escandaliz
escapa</w>
escapar</w>
escar
escen
escena</w>
escenario</w>
escencia</w>
esco
esco</w>
escoba</w>
escoger</w>
escol
escon
esconde</w>
escondida</w>
escondido</w>
escri
escrib
escriba</w>
escribas</w>
escribe</w>
escriben</w>
escribi
escribiendo</w>
escribir</w>
escribirle</w>
escribo</w>
escribía</w>
escrita</w>
escrito</w>
escritor</w>
escritores</w>
escritorio</w>
escritura</w>
escu
escuch
escuchaba</w>
escuchaban</w>
escuchan</w>
escuchando</w>
escuchar
escuchar</w>
escuchá</w>
escuché</w>
escuchó</w>
escudo</w>
escuela</w>
escuelas</w>
escupi
escupidera</w>
escupideras</w>
escándal
escándalo</w>
ese</w>
esen</w>
esencial</w>
esenciales</w>
eses</w>
esfera</w>
esferas</w>
esforz
esfuerzo</w>
esfuerzos</w>
esi
esia</w>
esion
esis</w>
esión</w>
esk
esmer
esmeralda</w>
eso</w>
esos</w>
esp
espacio</w>
espada</w>
espalda</w>
espaldas</w>
espanto
espantosamente</w>
espantoso</w>
espas
espasmó
españa</w>
español</w>
española</w>
españoles</w>
espe
especi
especial</w>
especiales</w>
especialmente</w>
especie</w>
especies</w>
espect
espectador</w>
espectáculo</w>
espejo</w>
espejos</w>
esper
espera</w>
esperaba</w>
esperaban</w>
esperado</w>
esperando</w>
esperanza</w>
esperanzas</w>
esperar</w>
espere</w>
espero</w>
esperá</w>
esperándola</w>
esperé</w>
esperó</w>
espeso</w>
espi
espina</w>
espiral</w>
espiri
espiritual</w>
espirituales</w>
espl
esplén
espléndido</w>
espon
esponj
esposa</w>
esposas</w>
esposo</w>
espu
espuma</w>
espía</w>
espíritu</w>
esqui
esquimal</w>
esquina</w>
esquinas</w>
ess</w>
esse</w>
est
est</w>
esta</w>
estaba</w>
estaban</w>
estabas</w>
estable
establecer</w>
estableci
establecimiento</w>
establecimientos</w>
estableció</w>
estacion
estaciones</w>
estación</w>
estad
estada</w>
estado</w>
estados</w>
estaf
estall
estam
estamos</w>
estampilla</w>
estampillas</w>
estan
estar</w>
estará</w>
estarán</w>
estaría</w>
estas</w>
estatu
estatua</w>
estatuas</w>
este</w>
estemos</w>
ester
ester</w>
estesia</w>
esther</w>
esti
estilo</w>
estir
estiraba</w>
estiró</w>
esto</w>
estopa</w>
estos</w>
estoy</w>
estr
estra
estra</w>
estrangu
estrapade</w>
estrat
estrech
estrecha</w>
estrell
estrella</w>
estrellas</w>
estrem
estri
estro</w>
estrope
estru
estruct
estructura</w>
estructuras</w>
estrías</w>
estu
estudi
estudiaba</w>
estudiando</w>
estudiantes</w>
estudiar</w>
estudio</w>
estudios</w>
estufa</w>
estupe
estupefac
estupefacción</w>
estupefacto</w>
estupefactos</w>
estupen
estupidez</w>
estuve</w>
estuvi
estuviera</w>
estuvieran</w>
estuvieron</w>
estuviese</w>
estuvimos</w>
estuvo</w>
está</w>
estábamos</w>
están</w>
estás</w>
esté
esté</w>
estén</w>
estética</w>
estético</w>
estímu
estómago</w>
estúpi
estúpida</w>
estúpidamente</w>
estúpidas</w>
estúpido</w>
esía</w>
et
et</w>
eta
eta</w>
etapa</w>
etapas</w>
etas</w>
etc</w>
etcétera</w>
ete</w>
eter
eternamente</w>
eternidad</w>
etes</w>
eth
ethos</w>
eti
etienne</w>
etiqueta</w>
etiquetas</w>
etr
ette</w>
eu
eu</w>
eucalip
eucalipto</w>
eur
eur</w>
europa</w>
europe
eurs</w>
ev
eva</w>
eve</w>
evi
evid
evidencia</w>
evidente</w>
evidentemente</w>
evitar</w>
evo
evocación</w>
ex
ex</w>
exac
exacta</w>
exactamente</w>
exacto</w>
exag
exager
exal
exaltación</w>
exam
examen</w>
examin
exas
exasper
exasperaba</w>
excel
excelencia</w>
excelente</w>
excentr
excep
excepciones</w>
excepción</w>
excesi
excesivamente</w>
exceso</w>
exci
exclam
exclamación</w>
exclu
exclusivamente</w>
excre
excu
excur
exhi
exi
exig
exige</w>
exigía</w>
exis
exist
existe</w>
existen</w>
existencia</w>
existía</w>
expect
expectativa</w>
expedi
expedición</w>
expedientes</w>
exper
experiencia</w>
experiencias</w>
experim
expl
expli
explic
explica</w>
explicaba</w>
explicaciones</w>
explicación</w>
explicando</w>
explicar
explicar</w>
explicarle</w>
explicarlo</w>
explico</w>
explicá</w>
explicó</w>
explor
exploradores</w>
explorar</w>
expres
expresión</w>
expul
expulsado</w>
expulsión</w>
exquisi
exten
exter
exterior</w>
exteriores</w>
extr
extra
extraer</w>
extran
extranjero</w>
extranjeros</w>
extraordin
extraordinaria</w>
extraordinarias</w>
extraordinario</w>
extrapol
extrapolación</w>
extrañ
extraña</w>
extrañamiento</w>
extrañas</w>
extraño</w>
extrem
extremo</w>
ey
ey</w>
ez
ez</w>
eza</w>
ezas</w>
ezca</w>
ezco</w>
ezo</w>
f
f</w>
fa
fa</w>
fabri
fabricar</w>
fabul
fabuloso</w>
fac
faci
facilidad</w>
facto</w>
facul
fais</w>
fait</w>
fal
falena</w>
fall
falla</w>
falle
falleba</w>
falo</w>
falsa</w>
falsas</w>
false
falso</w>
falsos</w>
falta</w>
faltaba</w>
faltaban</w>
faltan</w>
faltar</w>
falúa</w>
fam
fama</w>
famas</w>
fami
famili
familia</w>
familiar</w>
familias</w>
famosa</w>
famoso</w>
famosos</w>
fan
fant
fantas
fantasma</w>
fantasía</w>
fanía</w>
far
fardos</w>
farmacia</w>
farmacias</w>
farmacéu
farmacéutica</w>
farol</w>
fas
fascin
fasti
fastidi
fat
fatal</w>
fatalidad</w>
fati
fatiga</w>
fatigado</w>
fatí
fatídico</w>
fau
fav
favor
favor</w>
favorable</w>
fe
fe</w>
fec
fecha</w>
fecto</w>
fectos</w>
fecun
fed
fel
feli
felices</w>
felicidad</w>
felisa</w>
feliz</w>
felpa</w>
fem
femen
fen
fenomen
fenó
fenómeno</w>
feo</w>
fer
fera</w>
ferencia</w>
feria</w>
ferino</w>
fero
feroz</w>
ferraguto</w>
ferrocarri
ferrocarril</w>
ferrovi
fes</w>
fest
festej
festejar</w>
fet
ff
ffi
fi
fia</w>
fiac
fiaca</w>
fiacres</w>
fiat</w>
fic
fica</w>
ficaba</w>
ficaciones</w>
ficación</w>
ficado</w>
ficante</w>
ficar</w>
ficha</w>
fichas</w>
fici
ficio</w>
ficios</w>
fico</w>
fiebre</w>
fiel
fiel</w>
field</w>
fierro</w>
fiesta</w>
fiestas</w>
fifty</w>
figu
figura</w>
figuras</w>
fij
fija</w>
fijado</w>
fijamente</w>
fijar</w>
fijate</w>
fijo</w>
fijos</w>
fil
fil</w>
fila</w>
filas</w>
fili
filloy</w>
filo</w>
filosof
filosofía</w>
filtr
filósof
filósofo</w>
fin
fin</w>
fina</w>
final</w>
finales</w>
finalmente</w>
fines</w>
fing
fingiendo</w>
fingir</w>
fini
fino</w>
finos</w>
fio</w>
fir
firi
firm
firma</w>
firmar</w>
firmas</w>
firme</w>
firmó</w>
fis
fl
fla
flan
flau
fle
flecha</w>
fleur</w>
flo
flor
flor</w>
flores</w>
flori
florida</w>
floride</w>
flota</w>
flotando</w>
flu
fo
fo</w>
fol
folk
fon
fondo</w>
fono</w>
fonía</w>
for
for</w>
ford</w>
form
forma</w>
formaba</w>
formada</w>
formado</w>
forman</w>
formando</w>
formar</w>
formas</w>
formes</w>
formid
formidable</w>
fort
fortunas</w>
forz
fos
fos</w>
fosfor
foto
foto</w>
fotos</w>
fou
fr
frac
fracaso</w>
fracasos</w>
fractura</w>
frag
fragancia</w>
fragmento</w>
fragor</w>
fran
franc
francamente</w>
france</w>
franceses</w>
francia</w>
francisco</w>
franco</w>
francos</w>
francés</w>
franja</w>
franque
fras
frasco</w>
frascos</w>
frase</w>
frases</w>
frater
fratern
frazada</w>
frazadas</w>
frecu
frecuencia</w>
frecuente</w>
fren
freno</w>
frente</w>
fres
fresca</w>
fresco</w>
fri
fritas</w>
frito</w>
fro
fron
frontera</w>
frotó</w>
fru
frutas</w>
fruto</w>
frági
frí
fría</w>
frío</w>
fríos</w>
fu
fue</w>
fuego</w>
fuente</w>
fuentes</w>
fuer
fuera</w>
fueran</w>
fueras</w>
fueron</w>
fuerte</w>
fuerza</w>
fuerzas</w>
fuese</w>
fuga</w>
fui</w>
fuimos</w>
fuiste</w>
ful
ful</w>
fulgur
fulgurante</w>
fum
fuma</w>
fumaba</w>
fumando</w>
fumar</w>
fume</w>
fun
funcion
funciona</w>
funciones</w>
función</w>
fundam
fundamental</w>
fundamentales</w>
fur
furgón</w>
furi
furiosa</w>
furioso</w>
furtivamente</w>
fusi
fusiles</w>
fusión</w>
futur
futuro</w>
fuéramos</w>
fá
fábrica</w>
fábricas</w>
fácil</w>
fáciles</w>
fácilmente</w>
fé
félix</w>
féni
fénix</w>
fí
fíj
fíjate</w>
físi
física</w>
físico</w>
fó
fónica</w>
fór
fórmula</w>
fósforo</w>
fósforos</w>
fúne
fúnebre</w>
fútbol</w>
g
g</w>
ga
ga</w>
gab
gaba</w>
gaban</w>
gabard
gabardina</w>
gación</w>
gada</w>
gadas</w>
gado</w>
gados</w>
gago</w>
gal
gale</w>
galerie</w>
galería</w>
galerías</w>
gall
galle</w>
gallina</w>
gallinas</w>
gallo</w>
gam
gamos</w>
gan
gan</w>
gana</w>
ganaba</w>
ganado</w>
ganar</w>
ganas</w>
gancho</w>
gando</w>
ganta</w>
gar
gar</w>
gara</w>
garant
garantía</w>
garcía</w>
gardel</w>
gares</w>
garganta</w>
garo</w>
gas
gas</w>
gasa</w>
gato</w>
gatos</w>
gau
gaulo
gauloise</w>
ge
ge</w>
gekrepten</w>
gel
gem
gen
gen</w>
gener
generación</w>
general</w>
generales</w>
genericas</w>
genes</w>
geni
genial</w>
genio</w>
gente</w>
gentes</w>
genti
gentileza</w>
genéricas</w>
geo
ger
ger</w>
gerentes</w>
germa
germain</w>
ges
ges</w>
gesti
gesto</w>
gestos</w>
get
get</w>
gh
gh</w>
gi
gi</w>
gia</w>
gible</w>
gica</w>
gicamente</w>
gicas</w>
gico</w>
gicos</w>
gida</w>
gido</w>
gidos</w>
giendo</w>
gig
gigant
gigante</w>
gigantesca</w>
gil
gim
gime</w>
gin
gin</w>
ginebra</w>
gio</w>
gir
giraba</w>
girando</w>
girar</w>
giras
girasol</w>
giá
gió</w>
gl
glaci
glacial</w>
gladi
gladis</w>
glas
glasgow</w>
glo
globo</w>
gloria</w>
glíglico</w>
gn
go
go</w>
gobi
gobierno</w>
gofio</w>
going</w>
gol
golondr
golondrina</w>
golpe
golpe</w>
golpea</w>
golpeando</w>
golpear</w>
golpearon</w>
golpes</w>
golpeó</w>
goma</w>
gon
goodbye</w>
gor
gora</w>
gorda</w>
gordas</w>
gordo</w>
gorgo
gos
gos</w>
goso</w>
got
got</w>
gotas</w>
gotta</w>
gozar</w>
gr
gra</w>
grab
grabador</w>
graci
gracia</w>
gracias</w>
grado</w>
grados</w>
graf
grafo</w>
grafos</w>
grafía</w>
grafías</w>
gram
gran
gran</w>
grand
grande</w>
grandes</w>
grandísima</w>
granjas</w>
grapa</w>
grasa</w>
grati
gratis</w>
gratu
grav
grave</w>
gravedad</w>
gre
gre</w>
greg
gregorovius</w>
gri
gris</w>
grita</w>
gritaba</w>
gritar</w>
grito</w>
gritos</w>
gritó</w>
gro
gros
grosero</w>
grot
grotesco</w>
gru
grupo</w>
grupos</w>
gruñ
grá
gráfi
gs</w>
gu
gua</w>
guadaña</w>
guante</w>
guantes</w>
guar
guard
guarda</w>
guardaba</w>
guardar</w>
guardi
guardia</w>
gue</w>
guen</w>
guer
guero</w>
guerra</w>
gues</w>
guet</w>
gueule</w>
gui
guida</w>
guien</w>
guijarro</w>
guillotin
guirnalda</w>
guirnaldas</w>
guita</w>
guitarra</w>
guitry</w>
guk</w>
gular</w>
gun
gur
gura</w>
gusan
gusano</w>
gusanos</w>
gust
gusta</w>
gustaba</w>
gustaban</w>
gustado</w>
gustan</w>
gustar</w>
gustaría</w>
guste</w>
gusto</w>
gustos</w>
gustó</w>
guto</w>
gutusso</w>
guy</w>
gué</w>
guía</w>
gás</w>
gé
gén
género</w>
gér
gía</w>
gías</w>
gó</w>
gü
güedad</w>
güemes</w>
h
h</w>
ha
ha</w>
hab
habana</w>
habeb</w>
haber</w>
haberlo</w>
haberse</w>
habi
habido</w>
habilidad</w>
habit
habitaciones</w>
habitación</w>
habitantes</w>
habitu
habitual</w>
habitualmente</w>
habl
habla</w>
hablaba</w>
hablaban</w>
hablabas</w>
hablado</w>
hablamos</w>
hablan</w>
hablando</w>
hablar</w>
hablara</w>
hablarle</w>
hablaron</w>
hablaré</w>
hable</w>
hablemos</w>
hablen</w>
hablo</w>
hablábamos</w>
hablándole</w>
hablás</w>
habló</w>
habr
habrá</w>
habrán</w>
habrás</w>
habré</w>
habría</w>
había</w>
habíamos</w>
habían</w>
habías</w>
hac
hace</w>
haceme</w>
hacemos</w>
hacen</w>
hacer</w>
hacerla</w>
hacerle</w>
hacerlo</w>
hacerme</w>
hacerse</w>
hacerte</w>
haces</w>
haci
hacia</w>
haciendo</w>
hacé</w>
hacés</w>
hacía</w>
hacían</w>
hag
haga</w>
hagan</w>
hago</w>
hagás</w>
hal
hal</w>
hall
hall</w>
ham
hamac
hambre</w>
hamlet</w>
han
han</w>
har
harina</w>
harol
haroldo</w>
harto</w>
hará</w>
haría</w>
harían</w>
has
has</w>
hasta</w>
have</w>
havre</w>
hawkins</w>
hay
hay</w>
haya</w>
hayan</w>
hayas</w>
he
he</w>
hecha</w>
hecho</w>
hechos</w>
hed
hef
heftpistole</w>
heisenberg</w>
hel
helada</w>
heladera</w>
heladeras</w>
helado</w>
heli
hem
hembra</w>
hemos</w>
hen
her
her</w>
here</w>
herida</w>
herido</w>
herm
hermana</w>
hermanas</w>
hermano</w>
hermanos</w>
hermo
hermos
hermosa</w>
hermosas</w>
hermoso</w>
hermosos</w>
hermosura</w>
heroi
heroí
heroísmo</w>
herr
herrami
herrero</w>
herrum
herz
herzego
herzegovina</w>
heráclito</w>
hes</w>
heur
hi
hice</w>
hici
hiciera</w>
hicieron</w>
hiciste</w>
hidr
hidra</w>
hidro
hidropesía</w>
hiedra</w>
hielo</w>
hier
higiene</w>
higié
hija</w>
hijas</w>
hijita</w>
hijito</w>
hijo</w>
hijos</w>
hila
hilo</w>
hilos</w>
him
hin
hip
hipo
hipo</w>
hipos</w>
hipó
hipócri
hipótesis</w>
hir
hirviendo</w>
hist
histori
historia</w>
historias</w>
histérica</w>
históri
histórico</w>
históricos</w>
hizo</w>
ho
ho</w>
hogar</w>
hogu
hoja</w>
hojas</w>
hoje
hol
hola</w>
holiveira</w>
hom
hombre</w>
hombres</w>
hombro</w>
hombros</w>
home</w>
homen
homenaje</w>
homo
homo</w>
hon
hondo</w>
honduras</w>
honor</w>
honr
honrad
hor
hora</w>
horacio</w>
horarios</w>
horas</w>
horca</w>
horizon
horizonte</w>
hormiga</w>
hormigas</w>
hormiguero</w>
horr
horren
horri
horrible</w>
horriblemente</w>
horribles</w>
horror</w>
hos
hospi
hospital</w>
hospitales</w>
hosti
hostil</w>
hostilidad</w>
hotel</w>
hoteles</w>
howell</w>
hoy</w>
ht</w>
htin</w>
hu
hubi
hubiera</w>
hubieran</w>
hubieras</w>
hubiese</w>
hubiéramos</w>
hubo</w>
hue
hueco</w>
huecos</w>
huele</w>
huelen</w>
huella</w>
huellas</w>
huesos</w>
huevo</w>
huevos</w>
hugo</w>
hum
humana</w>
humanas</w>
humanidad</w>
humano</w>
humanos</w>
humboldt</w>
humedad</w>
humil
humilde</w>
humill
humo</w>
humor</w>
hun
hundiendo</w>
hur
hus
hux
huyendo</w>
hy
hyden</w>
há
hábi
hábito</w>
hé
héroe</w>
héroes</w>
hí
hú
húme
húmeda</w>
húmedo</w>
húmedos</w>
hún
húngara</w>
i
i</w>
ia</w>
ib
iba</w>
iban</w>
ibas</w>
ici
iciones</w>
ición</w>
id
id</w>
ida</w>
idad</w>
idas</w>
ide
idea</w>
ideal</w>
ideas</w>
identi
idi
idio
idioma</w>
idiota</w>
idiotas</w>
idiotez</w>
ido</w>
idos</w>
idén
idóneo</w>
iendo</w>
if</w>
ig
iglesia</w>
ign
ignor
ignoraba</w>
ignorancia</w>
igu
igual</w>
iguales</w>
igualmente</w>
ii</w>
il
il</w>
iles</w>
illa</w>
illas</w>
ille</w>
ilu
ilumin
iluminada</w>
ilusiones</w>
ilusión</w>
ilustr
ilustración</w>
im
im</w>
imag
imagen</w>
imagin
imaginaba</w>
imaginable</w>
imaginación</w>
imaginando</w>
imaginar</w>
imaginarse</w>
imagino</w>
imaginé</w>
imbé
imbécil</w>
imi
imos</w>
impaci
impaciencia</w>
impaciente</w>
impedir</w>
imper
impercepti
imperceptible</w>
imperi
imperial</w>
imperme
impermeable</w>
impl
implacable</w>
impor
importa</w>
importaba</w>
importancia</w>
importante</w>
importantes</w>
imposible</w>
impr
impre
impres
impresas</w>
impresiones</w>
impresión</w>
impresos</w>
impro
impul
impuls
impulso</w>
imágenes</w>
in
in</w>
ina</w>
inacción</w>
inal</w>
inalcanzable</w>
inas</w>
inasible</w>
inaudi
inc
incalcul
incapaces</w>
incapaz</w>
incendi
inces
inch
inci
incierta</w>
incitación</w>
inclin
inclinaba</w>
inclinada</w>
inclinado</w>
inclinarse</w>
inclinándose</w>
inclinó</w>
inclu
incluso</w>
incon
inconcebi
inconcebible</w>
incongru
inconsciente</w>
incontables</w>
inconveni
inconveniente</w>
incorpor
incorporarse</w>
incre
increíble</w>
increíblemente</w>
increíbles</w>
incur
incurable</w>
incómo
incómodo</w>
indeci
indepen
independencia</w>
indescripti
indeseable</w>
indi
indicación</w>
indiferencia</w>
indiferente</w>
indign
indignados</w>
individu
individual</w>
individuo</w>
individuos</w>
indu
ine
ine</w>
iner
inero</w>
ines</w>
inesper
inesperadamente</w>
inete</w>
inevitable</w>
inevitablemente</w>
inevitables</w>
inexist
inexistente</w>
inexpli
inexplicab
inexplicable</w>
inf
infali
infancia</w>
infantes</w>
infanti
infeliz</w>
infer
inferi
inferior</w>
infi
infierno</w>
infini
infinita</w>
infinitamente</w>
infinitas</w>
infinito</w>
influ
influencia</w>
influencias</w>
infor
inform
informa</w>
información</w>
informe</w>
informó</w>
infr
ing
ing</w>
ingeni
ingeniero</w>
ingenu
ingl
inglesa</w>
inglés</w>
ingos</w>
ingr
ingres
ingresar</w>
ingreso</w>
ings</w>
ington</w>
ini
ini</w>
inia</w>
inici
inicial</w>
inidad</w>
ininteligible</w>
injusto</w>
inmedi
inmediatamente</w>
inmediato</w>
inmen
inmensa</w>
inmenso</w>
inmensos</w>
inmin
inmor
inmovi
inmovilidad</w>
inmun
inmundo</w>
inmó
inmóvil</w>
innoble</w>
innov
ino
ino</w>
inoc
inocencia</w>
inocente</w>
inos</w>
inqui
inquie
inquiet
inquieta</w>
inquietantes</w>
inquietud</w>
inquisi
inquisidor</w>
ins
insalvable</w>
inscri
inscrib
inscribía</w>
insecto</w>
insens
insensata</w>
insensatez</w>
insensato</w>
insi
insigni
insignificante</w>
insin
insinu
insinuar</w>
insist
insisti
insistir</w>
insistió</w>
insistía</w>
insol
insolencia</w>
insom
insomnio</w>
insopor
insoportable</w>
inspe
inspir
inst
instal
instala</w>
instalación</w>
instalado</w>
instalados</w>
instalar</w>
instaló</w>
instancia</w>
instante</w>
instantes</w>
instantáne
instantánea</w>
instantáneamente</w>
instantáneo</w>
instinto</w>
institu
instrucciones</w>
instrum
instrumento</w>
instrumentos</w>
insul
insulto</w>
insó
inte
integr
intelectual</w>
intelectuales</w>
intelig
inteligencia</w>
inteligente</w>
inteligi
inteligible</w>
inten
intenciones</w>
intención</w>
intenso</w>
intent
intentar</w>
inter
inter</w>
intercal
interces
intercesores</w>
interes
interesa</w>
interesaba</w>
interesado</w>
interesante</w>
interior</w>
intermedia</w>
intermedio</w>
intermin
interminable</w>
interminablemente</w>
intern
interna</w>
internacional</w>
internacionales</w>
interno</w>
interpel
interpre
interro
interrog
interrum
interrumpi
intervalo</w>
intervalos</w>
interés</w>
inti
intimidad</w>
intro
introdu
introducción</w>
intu
intuición</w>
intuir</w>
inv
invad
invadi
invadía</w>
invenci
invenciones</w>
invención</w>
invent
inventado</w>
inventar</w>
inventario</w>
investi
investigación</w>
invi
invierno</w>
invisible</w>
invisibles</w>
invitación</w>
invitado</w>
inyec
inyecciones</w>
inyección</w>
inútil</w>
inútiles</w>
inútilmente</w>
io</w>
ionas</w>
ior</w>
ir
ir</w>
ira</w>
iracun
iras</w>
ire</w>
iremos</w>
irene</w>
ireneo</w>
ires</w>
iri</w>
iris</w>
irla</w>
irle</w>
irlo</w>
irma</w>
irme</w>
irnos</w>
ironía</w>
iros</w>
irre
irrealidad</w>
irrefu
irresisti
irri
irris
irrisoria</w>
irritación</w>
irrum
irse</w>
irte</w>
irá</w>
irán</w>
irás</w>
irène</w>
iré</w>
iría</w>
irían</w>
irónicamente</w>
irónico</w>
is
is</w>
ise</w>
isidro</w>
isla</w>
islas</w>
ismo</w>
ismos</w>
ist
ista</w>
istas</w>
iste</w>
isó
it
it</w>
ita</w>
itali
italiano</w>
ite</w>
itiner
itinerarios</w>
ito</w>
itos</w>
iv
ivonne</w>
ix</w>
iz
izquierda</w>
izquierdo</w>
j
j</w>
ja
ja</w>
jab
jabon
jabón</w>
jac
jacques</w>
jad
jada</w>
jade
jadeaba</w>
jalea</w>
jam
jamás</w>
jamón</w>
jano</w>
japonés</w>
japón</w>
jar
jard
jardines</w>
jardín</w>
jarrito</w>
jarro</w>
jas</w>
jau
jaula</w>
jaz
jazmines</w>
jazz</w>
je
je</w>
jean</w>
jeanne</w>
jefe</w>
jefes</w>
jelly</w>
jer
jero</w>
jet
jeun
ji
jim</w>
jir
jirones</w>
jita</w>
jito</w>
jo
jo</w>
joder</w>
jodido</w>
jodidos</w>
john</w>
johnny</w>
johnson</w>
jor
jorge</w>
jornada</w>
jorob
joroba</w>
jorobar</w>
jos</w>
josiane</w>
josé</w>
jour</w>
joven</w>
jovenci
ju
juan</w>
jubi
jue
juega</w>
juego</w>
juegos</w>
juelas</w>
jueves</w>
juez</w>
jug
jugaba</w>
jugaban</w>
jugada</w>
jugando</w>
jugar</w>
jugo</w>
jugu
juguete</w>
juicio</w>
julio</w>
jun
juni
junta</w>
juntaba</w>
juntan</w>
juntar</w>
juntas</w>
junto</w>
juntos</w>
jur
juro</w>
just
just</w>
justa</w>
justamente</w>
justi
justicia</w>
justifi
justo</w>
justos</w>
juventud</w>
juz
juárez</w>
jó
jóvenes</w>
k
k</w>
ka
ka</w>
kar
ke
ke</w>
ker</w>
kes</w>
key</w>
ki
ki</w>
kibbutz</w>
kikí</w>
kilómetro</w>
kilómetros</w>
kin
kins</w>
kl
klaios</w>
klee</w>
ko
ko</w>
kon
kon</w>
kre
kson</w>
ku
kun
ky
ky</w>
kyaw</w>
kí</w>
l
l</w>
la
la</w>
lab
laba</w>
laberinto</w>
labio</w>
labios</w>
labor</w>
lac
lación</w>
lacri
lad
lada</w>
lado</w>
lador</w>
lados</w>
ladrillo</w>
ladrillos</w>
lagar
lai
lam
lament
lamentable</w>
lamento</w>
lami
lamo</w>
lan
lan</w>
lana</w>
lance</w>
lancia</w>
land
lando</w>
lante</w>
lanz
lanza</w>
lar
lar</w>
lares</w>
larg
larga</w>
largas</w>
largo</w>
largos</w>
las
las</w>
lasti
lat
lata</w>
latas</w>
late</w>
lateral</w>
latino
latino</w>
latón</w>
lau
laur
laura</w>
laurent</w>
lautréamont</w>
lav
lavab
lavabo</w>
lavado</w>
lavalle</w>
lavanda</w>
lavatorio</w>
lazo</w>
le
le</w>
lea</w>
lec
lecciones</w>
lección</w>
lech
leche</w>
lechu
lect
lector</w>
lectores</w>
lectura</w>
lecturas</w>
ledesma</w>
lee</w>
leer</w>
leerla</w>
leerle</w>
leerlo</w>
leg
legi
legu
lej
lejana</w>
lejano</w>
lejos</w>
lem
lemente</w>
lemos</w>
len
lengu
lengua</w>
lenguaje</w>
lenta</w>
lentamente</w>
lento</w>
leo
leo</w>
leopardos</w>
ler</w>
lera</w>
les</w>
let
let</w>
leta</w>
letas</w>
lete</w>
letr
letra</w>
letras</w>
lev
levant
levanta</w>
levantaba</w>
levantando</w>
levantar</w>
levantarse</w>
levantaste</w>
levantándose</w>
levantó</w>
leve</w>
levemente</w>
lever</w>
ley
ley</w>
leyendo</w>
leyera</w>
leyes</w>
leyó</w>
leía</w>
leído</w>
león</w>
li
li</w>
lia</w>
liber
liber</w>
liberación</w>
libert
libertad</w>
libr
librarse</w>
libre
libre</w>
libremente</w>
librería</w>
libres</w>
libreta</w>
libri
libro</w>
libros</w>
lic
lica</w>
licas</w>
licenci
lico</w>
licos</w>
lidad</w>
lidades</w>
lido</w>
lidos</w>
lie
lieu</w>
lig
ligera</w>
ligeramente</w>
ligero</w>
lil</w>
lim
limi
limit
limonada</w>
limpi
limpia</w>
limpio</w>
lin
linda</w>
lindo</w>
linterna</w>
lio</w>
lios</w>
lip
lip</w>
liqui
liquidación</w>
liquidar</w>
lis
lismo</w>
lista</w>
listas</w>
listo</w>
lit
lita</w>
liter
literalmente</w>
literaria</w>
literario</w>
literarios</w>
literatura</w>
lito</w>
litro</w>
litros</w>
liv
livi
livianos</w>
living</w>
lix</w>
liz
liza</w>
lizar</w>
lián</w>
ll
ll</w>
lla</w>
llado</w>
llam
llama</w>
llamaba</w>
llamaban</w>
llamada</w>
llamado</w>
llamamos</w>
llaman</w>
llamar</w>
llamarla</w>
llamarle</w>
llamarlo</w>
llamo</w>
llamás</w>
llamó</w>
llano</w>
llanto</w>
llar</w>
llas</w>
llave</w>
lle
lle</w>
lleg
llega</w>
llegaba</w>
llegaban</w>
llegada</w>
llegado</w>
llegamos</w>
llegan</w>
llegando</w>
llegar</w>
llegara</w>
llegaron</w>
llegará</w>
llego</w>
llegue</w>
llegué</w>
llegó</w>
llen
llena</w>
llenaba</w>
llenaban</w>
llenado</w>
llenando</w>
llenar</w>
llenas</w>
lleno</w>
llenos</w>
lles</w>
llev
lleva</w>
llevaba</w>
llevaban</w>
llevado</w>
llevamos</w>
llevan</w>
llevando</w>
llevar</w>
llevaran</w>
llevaron</w>
llevaría</w>
lleve</w>
llevó</w>
llo
llo</w>
llor
llora</w>
lloraba</w>
lloran</w>
llorando</w>
llorar</w>
lloro</w>
llorá</w>
lloró</w>
llos</w>
llover</w>
llovi
lloviendo</w>
lloviz
llovía</w>
llu
llueve</w>
lluvia</w>
lly</w>
lmente</w>
lo
lo</w>
loca</w>
local</w>
locales</w>
locali
loco</w>
locos</w>
locu
locura</w>
logo</w>
logos</w>
logr
logía</w>
lom
loma</w>
lomo</w>
lon
londres</w>
long</w>
loquero</w>
lor
lorenzo</w>
los</w>
lotería</w>
lou
lousy</w>
louvre</w>
lt
lti
lu
luc
lucas</w>
lucca</w>
luces</w>
luch
lucha</w>
luchando</w>
luchar</w>
luci
lucidez</w>
lucía</w>
luego</w>
lugar</w>
lugares</w>
luis</w>
luisa</w>
luisi</w>
luj
lujo</w>
lum
lumin
luna</w>
lunes</w>
lupescu</w>
lustr
lustral</w>
lute
luteci
luz</w>
ly
là</w>
lá
lágri
lágrimas</w>
lámpara</w>
lámparas</w>
lápi
lápices</w>
lápiz</w>
lástima</w>
lé
léonie</w>
lí
líg
límite</w>
límites</w>
línea</w>
líneas</w>
lío</w>
líos</w>
líquido</w>
lívidas</w>
ló
ló</w>
lógica</w>
lógicas</w>
lógico</w>
lópez</w>
lú
lúcida</w>
lúgu
lúgubre</w>
m
m</w>
ma
ma</w>
maba</w>
mac
macana</w>
macanu
maceta</w>
macetas</w>
maci
mad
mada</w>
madame</w>
madera</w>
mado</w>
mador</w>
madre</w>
madres</w>
madrid</w>
madrugada</w>
madurez</w>
maestr
maestro</w>
maestros</w>
mag
maga</w>
magn
magnetófono</w>
mago</w>
mai
mais</w>
maj
majestu
mal
mal</w>
mala</w>
malas</w>
maldi
maldiciendo</w>
maldita</w>
maldito</w>
malentendi
malentendidos</w>
malgas
mali
malig
maligna</w>
mall
malo</w>
malogr
malos</w>
malv
malvones</w>
mam
mamente</w>
mamá</w>
man
man</w>
mana</w>
manantial</w>
manch
mancha</w>
manchas</w>
mand
manda</w>
mandados</w>
mandan</w>
mandarse</w>
mande</w>
mando</w>
mandrá
mandrágora</w>
mandó</w>
manej
manejaba</w>
manera</w>
maneras</w>
manga</w>
mangas</w>
mangos</w>
manguera</w>
mangueras</w>
mani
manifest
manifestaciones</w>
mann</w>
mano</w>
manolita</w>
manolo</w>
manos</w>
manot
manotazos</w>
manote
manoteando</w>
manotón</w>
manta</w>
mantas</w>
mante</w>
manteca</w>
mantel</w>
mantener</w>
mantenerse</w>
mantenía</w>
mantes</w>
manu
manual</w>
manz
manzana</w>
manía</w>
manú</w>
mapa</w>
maquin
mar
mar</w>
mara</w>
marat</w>
maravi
maravill
maravilla</w>
maravillosa</w>
maravillosamente</w>
maravilloso</w>
marca</w>
marcan</w>
march
marcha</w>
marcial</w>
marco</w>
marea</w>
mares</w>
marfil</w>
marg
margarita</w>
margen</w>
mari
marido</w>
marie</w>
marini</w>
mario</w>
mariposa</w>
mariposas</w>
maron</w>
marsell
marsella</w>
marte</w>
martes</w>
marti
martill
martín</w>
marzo</w>
maría</w>
mas
mas</w>
masa</w>
masas</w>
mascull
masti
masturb
mat
mata</w>
matado</w>
matando</w>
matar</w>
matara</w>
matarlo</w>
mate</w>
maten</w>
materi
materia</w>
material</w>
materiales</w>
mates</w>
matr
matrim
matrimonio</w>
mau
max</w>
may
mayo</w>
mayor</w>
mayores</w>
mayormente</w>
mayoría</w>
maz
mañ
mañana</w>
mbo
mbre</w>
mbres</w>
me
me</w>
mear</w>
mecan
mecanismo</w>
mecá
mecánica</w>
mecánicamente</w>
med
medalla</w>
medi
media</w>
medialunas</w>
medianoche</w>
mediante</w>
medias</w>
medida</w>
medidas</w>
medio</w>
mediodía</w>
medios</w>
meditaciones</w>
meditación</w>
medu
mej
mejilla</w>
mejillas</w>
mejor
mejor</w>
mejores</w>
mel
mela</w>
melancol
melancolía</w>
melancó
melián</w>
melo
melodía</w>
mem
memoria</w>
memorias</w>
men
men</w>
menci
mencion
mencionado</w>
mencionados</w>
mencionar</w>
mención</w>
mendo
mendoza</w>
menes</w>
menor</w>
menores</w>
menos</w>
menoscab
mens
mensaj
mensaje</w>
mensajes</w>
mensuales</w>
ment
menta</w>
mental</w>
mentales</w>
mentalmente</w>
mente</w>
mentira</w>
mento</w>
mentos</w>
menu
menudo</w>
mer
mera</w>
meras</w>
mercado</w>
mercuri
mercurio</w>
mercury</w>
merde</w>
merec
merece</w>
merecía</w>
meri
mero</w>
meros</w>
mes
mes</w>
mesa</w>
mesas</w>
meses</w>
mesita</w>
met
meta
metafísi
metafísica</w>
metafísico</w>
metafísicos</w>
metal</w>
metam
mete
mete</w>
meten</w>
meter
meter</w>
meterla</w>
meterlo</w>
meterlos</w>
meterme</w>
meterse</w>
meti
metida</w>
metidas</w>
metido</w>
metidos</w>
metiendo</w>
metiera</w>
metiéndose</w>
metió</w>
metr
metralla</w>
metro</w>
metros</w>
metría</w>
metáfora</w>
metáforas</w>
metáli
metía</w>
metó
mexican
mez
mezc
mezcl
mezcla</w>
mezclaba</w>
mezclada</w>
mezclado</w>
mezquina</w>
mi
mi</w>
mia</w>
mica</w>
micamente</w>
mich
michael</w>
michel</w>
mico</w>
micr
micro
microbios</w>
mid
mida</w>
midad</w>
mido</w>
miedo</w>
miel</w>
miembr
miembros</w>
miendo</w>
miento</w>
mientos</w>
mientras</w>
mierda</w>
miga</w>
mil
mil</w>
milagro</w>
milenario</w>
miles</w>
mili
militar</w>
militares</w>
militarismo</w>
mill
millones</w>
min
mina</w>
miner
minerales</w>
minis
minist
ministerio</w>
ministración</w>
ministro</w>
mino</w>
minu
minuci
minuciosamente</w>
minucioso</w>
minuto</w>
minutos</w>
mio</w>
mios</w>
mir
mira</w>
miraba</w>
miraban</w>
mirada</w>
miradas</w>
mirado</w>
miramos</w>
miran</w>
mirando</w>
mirar</w>
mirarla</w>
mirarlo</w>
mirarme</w>
miraron</w>
mirarse</w>
mire</w>
miro</w>
mirá</w>
mirábamos</w>
mirándola</w>
mirándolo</w>
mirándolos</w>
mirándome</w>
mirándose</w>
mirás</w>
miró</w>
mis
mis</w>
misa</w>
miser
miseria</w>
misma</w>
mismas</w>
mismo</w>
mismos</w>
miso</w>
mist
mista</w>
misteri
misterio</w>
misterioso</w>
mit
mitad</w>
mite</w>
mites</w>
mité</w>
mix
miércoles</w>
mió</w>
mme</w>
mo
mo</w>
mocos</w>
mod
moda</w>
mode
modelo</w>
moder
moderno</w>
modesta</w>
modestamente</w>
modesto</w>
modista</w>
modo</w>
modos</w>
moh
moi</w>
moj
mojada</w>
mojado</w>
mojados</w>
mol
mol</w>
molde</w>
molest
molesta</w>
molestaba</w>
molestar</w>
molestara</w>
molestarse</w>
molesto</w>
molestó</w>
molino</w>
molécula</w>
moléculas</w>
mom
moment
momento</w>
momentos</w>
mon
mon</w>
mond</w>
monde</w>
mondri
mondrian</w>
moneda</w>
monedas</w>
monio</w>
monja</w>
monjas</w>
monjes</w>
mono
mono</w>
monod</w>
monos</w>
monsieur</w>
monstru
monstruo</w>
monstruos</w>
monstruoso</w>
mont
montacargas</w>
montaña</w>
montañas</w>
monte
monte</w>
montevide
montevideo</w>
montones</w>
montpar
montparnasse</w>
montón</w>
monó
monóton
monótono</w>
mor
moral</w>
morales</w>
mordisque
mordiéndose</w>
mordió</w>
more</w>
morelli</w>
morelliana</w>
morgue</w>
morir</w>
morirse</w>
morton</w>
mos
mos</w>
mosca</w>
moscas</w>
mostr
mostraba</w>
mostrado</w>
mostrador</w>
mostrando</w>
mostrar</w>
mostrarle</w>
mostrándole</w>
mostró</w>
motivo</w>
motor</w>
mover</w>
moverse</w>
movi
movido</w>
moviendo</w>
moviera</w>
movimiento</w>
movimientos</w>
moviéndose</w>
movió</w>
movía</w>
movían</w>
mozart</w>
mozo</w>
mu
mucama</w>
much
mucha
mucha</w>
muchacha</w>
muchachas</w>
muchacho</w>
muchachos</w>
muchas</w>
muchedumbre</w>
mucho</w>
muchos</w>
muchísimo</w>
mudar</w>
mudo</w>
mue
muebles</w>
muecas</w>
muelle</w>
muelles</w>
muer
muere</w>
muerta</w>
muerte</w>
muerto</w>
muertos</w>
muestr
muestra</w>
muestran</w>
muevas</w>
mueve</w>
mueven</w>
muevo</w>
mugre</w>
mujer</w>
mujeres</w>
mul
mula</w>
multi
multipli
multiplicación</w>
multitud</w>
mun
mundial</w>
mundo</w>
mundos</w>
munici
municip
mur
mur</w>
murallas</w>
muri
muriendo</w>
murió</w>
murmu
murmullo</w>
murmur
murmuraba</w>
murmurando</w>
murmuró</w>
muro</w>
mus
museo</w>
musi
musical</w>
musil</w>
muslo</w>
muslos</w>
muy</w>
muñ
muñe
muñeca</w>
muñequita</w>
muñequito</w>
my</w>
má
mágico</w>
mán</w>
máquina</w>
máquinas</w>
már
mármol</w>
más</w>
máscara</w>
máscaras</w>
máxima</w>
máximo</w>
mé
médico</w>
médicos</w>
mérito</w>
método</w>
métodos</w>
méxico</w>
même</w>
mí
mí</w>
mía</w>
mínimo</w>
mío</w>
míos</w>
mó
mó</w>
món</w>
mú
múlti
múltiples</w>
músi
música</w>
músico</w>
n
n</w>
na</w>
nac
nace</w>
nacer</w>
naci
nacido</w>
nacidos</w>
nacimiento</w>
nacional</w>
nacionales</w>
naciones</w>
nación</w>
nacía</w>
nad
nada</w>
nadando</w>
nadar</w>
nadi
nadie</w>
nado</w>
naf
nafta</w>
nal</w>
napo
nar
nar</w>
naran
naranja</w>
nari
narices</w>
nariz</w>
narr
narra
narración</w>
narrativa</w>
nas
nas</w>
nat
natur
natural</w>
naturales</w>
naturaleza</w>
naturalidad</w>
naturalmente</w>
nav
navaja</w>
ne
ne</w>
neas</w>
nec
neces
necesaria</w>
necesario</w>
necesi
necesidad</w>
necesita</w>
necesitaba</w>
necesitan</w>
necesito</w>
neg
negación</w>
negar</w>
negarse</w>
negativa</w>
negativo</w>
nego
negocios</w>
negr
negra</w>
negras</w>
negro</w>
negros</w>
negó</w>
nena</w>
nene</w>
nenes</w>
neo</w>
ner
ner</w>
nervi
nerviosa</w>
nes</w>
ness</w>
net</w>
neu
neur
neurona</w>
neutr
nev
ney</w>
ni
ni</w>
nia</w>
nica</w>
nicamente</w>
nicas</w>
nico</w>
nicos</w>
nidad</w>
nido</w>
nie
niebla</w>
nieve</w>
nil</w>
nillo</w>
nimio</w>
nimo</w>
nimos</w>
nin
ning
ninguna</w>
ninguno</w>
ningún</w>
nio</w>
nivel</w>
niveles</w>
niz
niña</w>
niño</w>
niños</w>
no
no</w>
noble</w>
nobody</w>
noche</w>
noches</w>
nociones</w>
noción</w>
noct
noctur
nocturno</w>
nom
nombr
nombrar</w>
nombre</w>
nombres</w>
nomás</w>
non</w>
nor
norm
norte
norte</w>
nos</w>
nosotros</w>
nost
nostalgia</w>
nostalgias</w>
not</w>
nota</w>
notable</w>
notar</w>
notas</w>
noti
noticia</w>
noticias</w>
notó</w>
nous</w>
novalli</w>
nove
novecientos</w>
novedad</w>
novedades</w>
novela</w>
novelas</w>
novelista</w>
novi
novia</w>
novio</w>
nu
nube</w>
nubes</w>
nubio</w>
nuca</w>
nucleicos</w>
nudo</w>
nudos</w>
nue
nuestra</w>
nuestras</w>
nuestro</w>
nuestros</w>
nueva</w>
nuevas</w>
nueve</w>
nuevo</w>
nuevos</w>
numer
nun
nunca</w>
ny</w>
ná
náu
náusea</w>
náuseas</w>
ní
nó
nú
número</w>
números</w>
o
o</w>
oasis</w>
ob
obe
obedi
obediencia</w>
obje
objeto</w>
objetos</w>
obli
oblig
obligaba</w>
obligaciones</w>
obligación</w>
obligadamente</w>
obligado</w>
obligó</w>
obr
obra</w>
obras</w>
obreros</w>
obs
obsc
obsceni
obser
observ
observaciones</w>
observación</w>
observar</w>
observó</w>
obst
obstin
obstinación</w>
obvio</w>
oc
oca
ocasiones</w>
ocasión</w>
occident
occidental</w>
occidente</w>
och
ochenta</w>
ocho</w>
oci
ock</w>
oclu
oct
ocu
ocul
ocultaba</w>
ocup
ocupa</w>
ocupaba</w>
ocupaciones</w>
ocupación</w>
ocupada</w>
ocupado</w>
ocur
ocurr
ocurre</w>
ocurren</w>
ocurri
ocurrido</w>
ocurriera</w>
ocurrir</w>
ocurriría</w>
ocurrió</w>
ocurría</w>
ocurrían</w>
od
od</w>
odessa</w>
odi
odio</w>
ody</w>
oeste</w>
of
of</w>
ofa</w>
ofendido</w>
ofensi
ofensiva</w>
ofi
ofici
oficial</w>
oficiales</w>
oficina</w>
oficinas</w>
oficio</w>
ofre
ofrecerle</w>
ofreci
ofreció</w>
og
ogar</w>
ogi
ogr
ografía</w>
ogía</w>
ogías</w>
oh</w>
oi
oiga</w>
oigo</w>
oj
ojalá</w>
ojeada</w>
oji
ojo</w>
ojos</w>
ok
ok</w>
ol
ol</w>
ola</w>
olas</w>
old</w>
ole
oler</w>
oles</w>
olf
oli
oliendo</w>
olita</w>
olive
oliveira</w>
olo</w>
ologi
ología</w>
olor</w>
olores</w>
olvi
olvid
olvida</w>
olvidaba</w>
olvidada</w>
olvidado</w>
olvidar</w>
olvidarse</w>
olvido</w>
olía</w>
oló
ológica</w>
ológico</w>
om
om</w>
oma</w>
omas</w>
ombi
ombre</w>
ombú</w>
ome</w>
omega</w>
omen
omi
omin
omo</w>
omía</w>
on
on</w>
ona</w>
onal</w>
onales</w>
onas</w>
once</w>
one</w>
onel</w>
ones</w>
ong</w>
oni
onia</w>
onie</w>
onio</w>
onios</w>
onista</w>
ons</w>
onte</w>
onto
onía</w>
op
ope
oper
operaciones</w>
operación</w>
operar</w>
opiniones</w>
opinión</w>
oport
oportunidad</w>
optimismo</w>
optimista</w>
opuesta</w>
opuesto</w>
opía</w>
or
or</w>
ora</w>
oraciones</w>
oración</w>
orado</w>
orador</w>
orar</w>
oras</w>
ord
orden
orden</w>
ordena</w>
ordin
oreja</w>
orejas</w>
ores</w>
organ
organiz
organización</w>
organizar</w>
orgu
orgull
orgullo</w>
ori
ori</w>
oria</w>
orias</w>
orient
origen</w>
origin
original</w>
orilla</w>
orillas</w>
orio</w>
orios</w>
orita</w>
ormente</w>
oro</w>
orqu
orquesta</w>
ors</w>
os
os</w>
osa</w>
osamente</w>
osas</w>
oscar</w>
osci
oscur
oscura</w>
oscuramente</w>
oscuras</w>
oscuridad</w>
oscuro</w>
osi
osidad</w>
osis</w>
oso</w>
osos</w>
ossi
ossip</w>
ost
ostr
osvaldo</w>
osó
ot
ot</w>
ota</w>
ote
other</w>
oto
otr
otra</w>
otras</w>
otre</w>
otredad</w>
otro</w>
otros</w>
ou
our</w>
ous</w>
ov
ov</w>
ove
ovejero</w>
ovi
ovillo</w>
ox
oxígeno</w>
oy
oy</w>
oye</w>
oyen</w>
oyendo</w>
oyentes</w>
oyeron</w>
oyéndose</w>
oyó</w>
oí
oí</w>
oía</w>
oído</w>
oídos</w>
oír
oír</w>
où</w>
p
p</w>
pa
pa</w>
pab
paba</w>
pabellón</w>
pablito</w>
pablo</w>
pac
paci
paciencia</w>
pacto</w>
pad
pada</w>
padas</w>
pado</w>
pados</w>
padre</w>
padres</w>
pag
paga</w>
pagar</w>
pais
paisaje</w>
paj
pajarito</w>
pal
pal</w>
palabr
palabra</w>
palabras</w>
palacio</w>
palad
palan
palangana</w>
palanganas</w>
palermo</w>
pali
palma</w>
palo</w>
paloma</w>
palomas</w>
pam
pampa</w>
pan
pan</w>
pando</w>
panor
pant
pantalla</w>
pantalones</w>
pantalón</w>
pantuf
papa</w>
papada</w>
papas</w>
pape
papel</w>
papeles</w>
papelito</w>
papá</w>
paque
paquete</w>
paquetes</w>
par
par</w>
para
para</w>
parada</w>
parado</w>
paradoja</w>
parados</w>
paragu
paraguas</w>
parale
paralelepí
paralelepípedo</w>
paraliz
parape
parar</w>
paras</w>
paraí
paraíso</w>
parcial</w>
parda</w>
pardo</w>
pardos</w>
parec
parece</w>
parecen</w>
parecer</w>
parecería</w>
pareci
parecida</w>
parecido</w>
pareciera</w>
pareció</w>
parecés</w>
parecía</w>
parecían</w>
pared</w>
paredes</w>
pareja</w>
pares</w>
parezca</w>
pari
parientes</w>
parisi
parió</w>
park</w>
parpad
parque</w>
parques</w>
parrilla</w>
parse</w>
parte</w>
partes</w>
parti
partici
particular</w>
particulares</w>
particularmente</w>
partida</w>
partido</w>
partir</w>
parto</w>
parís</w>
pas
pas</w>
pasa</w>
pasaba</w>
pasaban</w>
pasado</w>
pasaj
pasaje</w>
pasajera</w>
pasajeros</w>
pasajes</w>
pasamos</w>
pasan</w>
pasando</w>
pasar</w>
pasara</w>
pasaron</w>
pasarse</w>
pasará</w>
pasaría</w>
pascua</w>
pase
pase</w>
paseaba</w>
paseo</w>
paseos</w>
pases</w>
pasi
pasillo</w>
pasillos</w>
pasiones</w>
pasivamente</w>
paso</w>
pasos</w>
pass
passage</w>
pasta</w>
pastillas</w>
pastiz
pastizales</w>
pasto</w>
pasé</w>
pasó</w>
pat
pat</w>
pata</w>
patada</w>
patadas</w>
patas</w>
patio</w>
pato</w>
patos</w>
patr
patri
patria</w>
patrio
patrón</w>
patterns</w>
pau
paul
paul</w>
pausa</w>
pav
pavadas</w>
pavana</w>
pay
paz</w>
país</w>
países</w>
pañ
paña</w>
pañuelo</w>
pañuelos</w>
pción</w>
pe
pe</w>
peceras</w>
peces</w>
pecho</w>
pect
ped
pedant
pedazo</w>
pedazos</w>
peder
pederasta</w>
pedi
pedido</w>
pedir
pedir</w>
pedirle</w>
pedirlo</w>
pediría</w>
pedo</w>
pedí</w>
pedía</w>
peg
pega</w>
pegaba</w>
pegada</w>
pegado</w>
pegados</w>
pegaj
pegajosa</w>
pegando</w>
pegar
pegar</w>
pegarle</w>
pegarse</w>
pegándose</w>
pein
peinaba</w>
peinado</w>
pel
pelaje</w>
peldaño</w>
peldaños</w>
pele
peli
peligr
peligro</w>
peligrosamente</w>
peligroso</w>
pelir
pelirroja</w>
pelito</w>
pelliz
pelo
pelo</w>
pelos</w>
pelota</w>
pelu
peluca</w>
pelusas</w>
película</w>
películas</w>
pen
pena</w>
penetr
penosa</w>
penosamente</w>
penoso</w>
pens
pensaba</w>
pensado</w>
pensamiento</w>
pensamientos</w>
pensando</w>
pensar</w>
pensarlo</w>
pensaron</w>
pensión</w>
pensá</w>
pensábamos</w>
pensás</w>
pensé</w>
pensó</w>
penumbra</w>
peor</w>
peores</w>
pepa</w>
peque
pequeña</w>
pequeñas</w>
pequeño</w>
pequeños</w>
per
per</w>
pera</w>
percat
percha</w>
perci
perd
perder
perder</w>
perderse</w>
perdida</w>
perdido</w>
perdidos</w>
perdió</w>
perdon
perdonar</w>
perdone</w>
perdía</w>
perdón</w>
perfec
perfeccion
perfección</w>
perfecta</w>
perfectamente</w>
perfecto</w>
perfectos</w>
perfil</w>
perfum
perfume</w>
perfumes</w>
peri
perico</w>
periferia</w>
perio
periodistas</w>
perió
perman
permi
permiso</w>
permit
permite</w>
permiti
permitido</w>
permitir
permitía</w>
pernod</w>
pero</w>
perple
perplejo</w>
perras</w>
perro</w>
perros</w>
perse
persecu
persi
persist
persistente</w>
person
persona</w>
personaje</w>
personajes</w>
personal</w>
personales</w>
personalmente</w>
personas</w>
perspe
perspectiva</w>
persu
perten
pertenecer</w>
peru
perí
perío
períodos</w>
pes
pes</w>
pesadilla</w>
pesado</w>
pesar</w>
pesca</w>
pescadito</w>
pescaditos</w>
pescado</w>
pescar</w>
pescuezo</w>
peso</w>
pesos</w>
peta</w>
peterson</w>
peti
petri
petrificado</w>
petu
petulante</w>
peugeot</w>
pez</w>
peón</w>
ph
phi
pi
pia</w>
pian
pianista</w>
piano</w>
piant
pibe</w>
pica
picaporte</w>
picas</w>
picasso</w>
pico
pico</w>
pide</w>
pidez</w>
pidiera</w>
pidió</w>
pie</w>
piedad</w>
piedra</w>
piedras</w>
piedrita</w>
piel</w>
pien
piensa</w>
piensan</w>
piense</w>
pienso</w>
pier
pierde</w>
pierna</w>
piernas</w>
pierre</w>
pies</w>
pieza</w>
piezas</w>
pila</w>
pilo
pin
pino</w>
pintada</w>
pintados</w>
pintar</w>
pinto</w>
pintor</w>
pintura</w>
pinzas</w>
pio</w>
piolincito</w>
piolines</w>
piolín</w>
pios</w>
pipa</w>
piper</w>
pir
pir</w>
pira</w>
piri
piriz</w>
pis
pis</w>
piso
piso</w>
pisos</w>
pisote
pista</w>
pisto
pistola</w>
pital</w>
pito</w>
piy
piyama</w>
piz
pl
pla
pla</w>
plac
place</w>
placer</w>
plaf</w>
plan
plan</w>
planes</w>
plano</w>
planos</w>
plant
planta</w>
plantado</w>
plantas</w>
plante
plantear</w>
plantes</w>
plas
plasma</w>
plat
plata</w>
plataforma</w>
plate
platea</w>
plato</w>
play</w>
playa</w>
plaz
plaza</w>
plazo</w>
ple
ple</w>
pleg
plena</w>
pleno</w>
pli
plica</w>
plicas</w>
plie
plomo</w>
plu
pluma</w>
plumas</w>
plus</w>
plá
plácido</w>
plástico</w>
plátano</w>
po
po</w>
pobre
pobre</w>
pobrecita</w>
pobrecito</w>
pobres</w>
poca</w>
pocas</w>
poco</w>
pocos</w>
pod
podemos</w>
poder
poder</w>
podido</w>
podr
podremos</w>
podri
podrido</w>
podrá</w>
podrán</w>
podré</w>
podría</w>
podríamos</w>
podrían</w>
podrías</w>
podés</w>
podía</w>
podían</w>
podías</w>
poema</w>
poemas</w>
poesía</w>
poeta</w>
poetas</w>
pol
pola</w>
poli
policía</w>
policías</w>
polilla</w>
poll
pollera</w>
polv
polvo</w>
polvori
polí
política</w>
políticas</w>
político</w>
pon
pondr
pone</w>
ponele</w>
ponen</w>
poner</w>
ponerle</w>
ponerse</w>
ponga</w>
pongo</w>
poni
poniendo</w>
poniéndose</w>
pont</w>
ponés</w>
ponía</w>
ponían</w>
por
por</w>
porque</w>
porquería</w>
porsche</w>
port
porta
portal</w>
portales</w>
porte
porte</w>
portera</w>
portes</w>
portez
porteño</w>
porteños</w>
pos
pos</w>
posado</w>
posar</w>
pose
posesión</w>
poseía</w>
posi
posibi
posibilidad</w>
posibilidades</w>
posible</w>
posibles</w>
posiciones</w>
posición</w>
positivo</w>
post
postal</w>
postales</w>
poste</w>
postura</w>
poten
potenci
pou
pour
pour</w>
pozo</w>
pozos</w>
poé
poética</w>
poético</w>
pr
practi
practicar</w>
prag
pre
precario</w>
precauciones</w>
precede</w>
preci
precio</w>
precios</w>
preciosa</w>
precioso</w>
precipi
precisa</w>
precisamente</w>
precisar</w>
precisas</w>
precisión</w>
preciso</w>
prefer
preferencia</w>
preferencias</w>
preferi
preferible</w>
preferido</w>
prefería</w>
prefi
prefiero</w>
prefiri
pregun
pregunta</w>
preguntaba</w>
preguntado</w>
preguntando</w>
preguntar</w>
preguntarle</w>
preguntarme</w>
preguntarse</w>
preguntas</w>
pregunto</w>
pregunté</w>
preguntó</w>
prejuicios</w>
prelu
preludio</w>
premio</w>
prendi
prendida</w>
prensa</w>
preocu
preocup
preocupaba</w>
preocupado</w>
preocupan</w>
preocuparse</w>
prepar
prepara</w>
preparado</w>
preparar</w>
pres
presa</w>
prescin
presencia</w>
present
presenta</w>
presentación</w>
presente</w>
presentes</w>
presentó</w>
presi
presidente</w>
presidentes</w>
presiones</w>
presión</w>
presos</w>
prestado</w>
prestigio</w>
presu
presun
presur
pret
preten
pretend
pretende</w>
pretenden</w>
pretender</w>
pretendo</w>
pretendía</w>
pretexto</w>
pretil</w>
pretty</w>
previa</w>
previo</w>
previsible</w>
previsto</w>
pri
prim
prima</w>
primas</w>
primer</w>
primera</w>
primeras</w>
primero</w>
primeros</w>
primi
primo</w>
primor
primos</w>
prin
princi
principal</w>
principio</w>
principios</w>
priv
privi
pro
pro</w>
proa</w>
prob
probab
probabi
probabilidades</w>
probable</w>
probablemente</w>
probado</w>
probar</w>
problema</w>
problemas</w>
proced
procede</w>
procedi
procedimiento</w>
procedía</w>
proceso</w>
proclam
proclama</w>
procur
procónsul</w>
prodigi
produ
produce</w>
producido</w>
producto</w>
proemios</w>
prof
profan
profer
profes
profesi
profesional</w>
profesión</w>
profesor</w>
profun
profunda</w>
profundamente</w>
profundas</w>
profundi
profundidad</w>
profundo</w>
progr
programa</w>
progresi
progreso</w>
prohi
prol
proli
prolifer
prolon
prolongar</w>
prom
promesa</w>
prometió</w>
pron
pronto</w>
pronunci
prop
propag
propi
propia</w>
propiamente</w>
propias</w>
propicio</w>
propiedad</w>
propiet
propietario</w>
propio</w>
propon
proponía</w>
propor
propuso</w>
propósito</w>
pros
prot
protag
prote
protec
protección</w>
proteg
proteger</w>
protegerse</w>
protest
protesta</w>
protestar</w>
proteí
proteína</w>
proven
provinci
provincia</w>
provisiones</w>
provo
provocado</w>
provocar</w>
proxen
proyec
proyecta</w>
pru
prueba</w>
pruebas</w>
prusi
prusianos</w>
prá
prácti
práctica</w>
prácticamente</w>
práctico</w>
pré
prés</w>
prínci
príncipe</w>
pró
pródigo</w>
próxima</w>
próximo</w>
ps</w>
psi
psico
psicolo
psicología</w>
psicoló
psiqui
psiquiatr
psiquiatría</w>
pt
pten</w>
pti
pu
publi
publicación</w>
pucho</w>
pude</w>
pudi
pudiera</w>
pudieran</w>
pudieras</w>
pudieron</w>
pudiese</w>
pudo</w>
pudor</w>
pue
pueblo</w>
pueblos</w>
pued
pueda</w>
puedan</w>
puede</w>
pueden</w>
puedo</w>
puente</w>
puentes</w>
pueri
puerta</w>
puertas</w>
puerto</w>
pues</w>
puesta</w>
puestas</w>
puesto</w>
puestos</w>
pugn
puisque</w>
pul
pulpos</w>
puls
pulsera</w>
pulso</w>
pulveriz
puló
pulóver</w>
pun
punta</w>
puntapi
puntapié</w>
puntas</w>
punto</w>
puntos</w>
pur
pura</w>
puramente</w>
pureza</w>
puri
puro</w>
puros</w>
puré</w>
puse</w>
pusi
pusiera</w>
pusieran</w>
pusieron</w>
puso</w>
put
puta</w>
puñ
puñet
puño</w>
pá
página</w>
páginas</w>
pájaro</w>
pájaros</w>
páli
pálida</w>
pálido</w>
pár
párpados</w>
párra
párrafo</w>
père</w>
pé
péndulo</w>
pér
pérez</w>
pérfida</w>
pétalos</w>
pí
pía</w>
pó
pó</w>
póker</w>
pósito</w>
pú
púa</w>
públi
público</w>
públicos</w>
q
qu
qu</w>
quai</w>
quand</w>
que
que</w>
quebr
quebrar</w>
qued
queda</w>
quedaba</w>
quedaban</w>
quedado</w>
quedamos</w>
quedan</w>
quedando</w>
quedar</w>
quedara</w>
quedarme</w>
quedaron</w>
quedarse</w>
quedará</w>
quedaría</w>
quedate</w>
quede</w>
quedo</w>
quedás</w>
quedé</w>
quedó</w>
quej
queja</w>
quejaba</w>
quejarse</w>
quejumbr
quel
quem
quema</w>
quemaba</w>
quemada</w>
quemar</w>
quer
queremos</w>
querer</w>
querida</w>
querido</w>
queriendo</w>
quero</w>
querés</w>
quería</w>
querían</w>
querías</w>
ques</w>
queso</w>
queta</w>
quetas</w>
qui
qui</w>
quianos</w>
quido</w>
quidos</w>
quie
quie</w>
quien</w>
quienes</w>
quiera</w>
quieras</w>
quiere</w>
quieren</w>
quieres</w>
quiero</w>
quieta</w>
quieto</w>
quill
quilla</w>
quin
quina</w>
quince</w>
quini
quinientas</w>
quinientos</w>
quinta</w>
quinto</w>
quir
quis</w>
quise</w>
quisi
quisiera</w>
quisiste</w>
quiso</w>
quitaba</w>
quitarle</w>
quitarse</w>
quito</w>
quitó</w>
quiz
quizá</w>
quién</w>
quoi</w>
qué
qué</w>
quédese</w>
quí
química</w>
r
r</w>
ra
ra</w>
rab
rabi
rabia</w>
rabiosamente</w>
rabioso</w>
raci
rada</w>
radi
radiante</w>
radio</w>
radios</w>
rafael</w>
raj
rajá</w>
ral
ral</w>
ram
rama</w>
ramas</w>
ramo</w>
ran
ranura</w>
rar
rar</w>
rara</w>
raras</w>
raro</w>
ras
ras</w>
raso</w>
rata</w>
rato</w>
ratos</w>
rau
ray
ray</w>
raya</w>
rayas</w>
raymond</w>
rayo</w>
rayos</w>
rayuela</w>
raz
raza</w>
razas</w>
razon
razonamiento</w>
razones</w>
razón</w>
raí
raíz</w>
re
re</w>
rea</w>
reac
reaccion
reaccionar</w>
reacciones</w>
reacción</w>
real</w>
reales</w>
realidad</w>
realiz
realmente</w>
reanu
reanudar</w>
rebelión</w>
recep
recepción</w>
recept
receptor</w>
receta</w>
rech
rechaz
rechazar</w>
rechazo</w>
rechazó</w>
reci
reciario</w>
recib
recibe</w>
recibido</w>
recibir</w>
recibió</w>
recibía</w>
recife</w>
recin
recitó</w>
recién</w>
reclam
reclama</w>
reclamando</w>
reclamar</w>
reco
recobr
recobrar</w>
recoge</w>
recoger</w>
recogido</w>
recom
recomend
recomi
reconcili
reconciliación</w>
recono
reconoce</w>
reconocer
reconocer</w>
reconocerlo</w>
reconocimiento</w>
reconoció</w>
reconocían</w>
reconquista</w>
reconstru
reconstruir</w>
recor
recordar</w>
recordó</w>
recorr
recorrer</w>
recu
recuento</w>
recuerdo</w>
recuerdos</w>
recuper
recurr
recurso</w>
recursos</w>
recípro
red
red</w>
redes</w>
redi
redon
redondas</w>
redu
reempl
reemplaz
ref
refer
referencia</w>
referencias</w>
refería</w>
refin
refle
reflejo</w>
reflexi
reflexión</w>
refres
refri
refriger
refu
refugi
refugiarse</w>
refugio</w>
reg
regal
regalado</w>
regalan</w>
regalo</w>
regi
registr
registro</w>
región</w>
regoci
regr
regres
regresar</w>
regreso</w>
regu
regulares</w>
rei
reina</w>
reino</w>
reiter
rejas</w>
rel
rela
relaciones</w>
relación</w>
relato</w>
relatos</w>
relev
religi
rellano</w>
relo
reloj
reloj</w>
relojero</w>
relojes</w>
reluci
relucir</w>
relámpago</w>
relámpagos</w>
remat
rembrandt</w>
remedio</w>
remedios</w>
remem
remo
remol
remon
remont
remonta</w>
remontar</w>
remor
remorino</w>
remos</w>
remota</w>
remoto</w>
ren
renault</w>
rencor
rendi
renov
renovigo</w>
renunci
renuncia</w>
renunciar</w>
renuncias</w>
rené</w>
reo</w>
reojo</w>
rep
repe
reper
repertorio</w>
repet
repeti
repetición</w>
repetido</w>
repetir
repetir</w>
repetía</w>
repi
repite</w>
repitiendo</w>
repitió</w>
repito</w>
reple
repo
reposo</w>
represent
representa</w>
representación</w>
repro
reprodu
repuesto</w>
repugn
repugnante</w>
repul
repulsa</w>
repúbli
repúblicas</w>
res
res</w>
resbal
resbalaba</w>
resbalaban</w>
resbalando</w>
resbalar</w>
resbaló</w>
rescat
rescate</w>
resentida</w>
resentido</w>
reserv
resfrío</w>
resi
resign
resis
resist
resistencia</w>
resisti
resistir</w>
resistía</w>
resol
resolvi
reson
resopl
resor
resortes</w>
respe
respecti
respectiva</w>
respectivamente</w>
respectivos</w>
respecto</w>
respeto</w>
respetu
respetuoso</w>
respir
respiraba</w>
respiración</w>
respirando</w>
respirar</w>
resplan
resplandeci
respon
responder</w>
responsab
responsabi
responsabilidad</w>
responsables</w>
respuesta</w>
respuestas</w>
rest
restante</w>
restaur
restaurante</w>
restitu
resto</w>
restos</w>
resu
resuel
resueltamente</w>
resuelto</w>
resuelve</w>
resul
resulta</w>
resultaba</w>
resultado</w>
resultados</w>
resultó</w>
resumen</w>
ret
reti
retir
retira</w>
retor
retorci
retorcía</w>
retorno</w>
retr
retras
retrato</w>
retro
retrocedía</w>
retóri
reun
reuni
reuniones</w>
reunir</w>
reunión</w>
rev
revel
revent
rever
revi
revienta</w>
revista</w>
revistas</w>
revol
revole
revolución</w>
revolviendo</w>
revés</w>
rewind</w>
rey</w>
reyes</w>
rez</w>
rezon
rezongó</w>
reí
reía</w>
reíamos</w>
reír</w>
reírse</w>
ri
ri</w>
rica</w>
ricas</w>
rice</w>
ricu
rid</w>
rido</w>
ridí
ridícula</w>
ridículo</w>
riendo</w>
ries
riesgo</w>
rig
right</w>
rigor</w>
rilla</w>
rim
rin
rincones</w>
rincón</w>
rio
rip</w>
riqu
riqueza</w>
ris</w>
risa</w>
risas</w>
rit
rita</w>
ritmo</w>
ritmos</w>
rito</w>
ritos</w>
rival</w>
riéndose</w>
rió</w>
ro
ro</w>
roberto</w>
rocamadour</w>
rodar</w>
rode
rodea</w>
rodeaba</w>
rodeaban</w>
rodeado</w>
rodeo</w>
rodi
rodillas</w>
roja</w>
rojas</w>
rojo</w>
rojos</w>
rol
roland</w>
roll</w>
rollo</w>
rom
roma</w>
roman
romana</w>
romanticismo</w>
romero</w>
romp
rompe</w>
romper
romper</w>
rompi
román
ron
ronal
ronald</w>
rones</w>
ronquido</w>
ropa</w>
ropero</w>
roque</w>
ros
ros</w>
rosa</w>
rosario</w>
rosas</w>
rose</w>
rostro</w>
rota</w>
rotas</w>
roto</w>
rotun
rotunda</w>
rou
rouge</w>
rous
rousse</w>
roy
rse</w>
ru
rub
rubia</w>
rubio</w>
rue
rue</w>
rueda</w>
ruedas</w>
rugada</w>
rui
ruido</w>
rulem
rulemanes</w>
rum
rumano</w>
rumbo</w>
rumi
rumiar</w>
rumor
rumores</w>
rup
rupción</w>
ruptura</w>
ruso</w>
rut
ruta</w>
rutina</w>
ry</w>
rá</w>
ráf
rán</w>
rápi
rápida</w>
rápidamente</w>
rápido</w>
rás</w>
ré
réplica</w>
rí
ría</w>
ríe</w>
rígido</w>
río</w>
ríos</w>
rít
rítmicamente</w>
ró</w>
rón</w>
s
s</w>
sa
sa</w>
sab
saba</w>
saban</w>
sabe</w>
sabemos</w>
saben</w>
saber</w>
saberlo</w>
saberse</w>
sabes</w>
sabi
sabidas</w>
sabido</w>
sabiendo</w>
sabio</w>
sabios</w>
sabor
sabor</w>
sabremos</w>
sabrá</w>
sabés</w>
sabía</w>
sabíamos</w>
sabían</w>
sabías</w>
sac
saca</w>
sacaba</w>
sacado</w>
sacan</w>
sacando</w>
sacar</w>
sacara</w>
sacaron</w>
sacarse</w>
saco</w>
sacri
sacrifi
sacrificio</w>
sacu
sacudiendo</w>
sacó</w>
saint</w>
sainte</w>
sal
sal</w>
sala</w>
salada</w>
salam
salamandra</w>
saldr
sale</w>
salen</w>
sales</w>
salga</w>
salgo</w>
sali
salida</w>
salidas</w>
salido</w>
saliendo</w>
saliera</w>
salieron</w>
salinsky</w>
salir</w>
salirse</w>
saliva</w>
salió</w>
salom
salomón</w>
salpi
salta</w>
saltaba</w>
saltan</w>
saltar</w>
salto</w>
saltos</w>
salu
salud</w>
saluda</w>
saludo</w>
saludos</w>
saludó</w>
salv
salvación</w>
salvaje</w>
salvar</w>
salvo</w>
salía</w>
salían</w>
salón</w>
sam
samari
samaritana</w>
samente</w>
san
san</w>
sandalias</w>
sandra</w>
sandwi
sandwiches</w>
sangr
sangre</w>
sanhes</w>
sano</w>
santa</w>
santi
santidad</w>
santigu
santo</w>
santos</w>
sapiens</w>
sapo</w>
saque</w>
saqué</w>
sar
sar</w>
sarcóf
sard
sardinas</w>
sarmiento</w>
sas</w>
sat
satchmo</w>
satisfac
satisfacción</w>
satisfactoria</w>
satisfactorio</w>
satisfe
satisfecha</w>
satisfecho</w>
satisfechos</w>
sau
saëns</w>
sc
sch
sche</w>
schoenberg</w>
schwit
schwitt</w>
sci
scot
scotch</w>
scri
se
se</w>
sea</w>
seamos</w>
sean</w>
seas</w>
sec
seca</w>
secamente</w>
secas</w>
sección</w>
seco</w>
secos</w>
secre
secret
secreta</w>
secretaria</w>
secretario</w>
secretarios</w>
secreto</w>
secretos</w>
sector</w>
secándose</w>
sed
sed</w>
see</w>
seg
segu
seguida</w>
seguido</w>
seguidos</w>
seguimos</w>
seguir</w>
seguiría</w>
segun
segunda</w>
segundo</w>
segundos</w>
segura</w>
seguramente</w>
seguri
seguridad</w>
seguro</w>
seguros</w>
seguí</w>
seguía</w>
seguían</w>
según</w>
seine</w>
seis</w>
sel
sel</w>
sellos</w>
selo</w>
selva</w>
sem
semana</w>
semanas</w>
sembr
semej
semejante</w>
semejantes</w>
semejanza</w>
semi
sen
sena</w>
senci
sencilla</w>
sencillamente</w>
sencillo</w>
send
sendero</w>
senos</w>
sens
sensación</w>
sensi
sensibilidad</w>
sensible</w>
sent
sentaba</w>
sentada</w>
sentado</w>
sentados</w>
sentar</w>
sentarse</w>
senti
sentido</w>
sentidos</w>
sentim
sentimental</w>
sentimiento</w>
sentimientos</w>
sentir</w>
sentirlo</w>
sentirme</w>
sentirse</w>
sentiría</w>
sentándose</w>
sentí</w>
sentía</w>
sentían</w>
sentís</w>
sentó</w>
seo</w>
sep
sepa</w>
sepamos</w>
separ
separación</w>
separados</w>
ser
ser</w>
seres</w>
seri
serie</w>
serio</w>
serpi
serpiente</w>
serr
serranos</w>
serv
servi
servicio</w>
servido</w>
servir</w>
servía</w>
será</w>
serán</w>
seré</w>
sería</w>
serían</w>
ses</w>
sesenta</w>
sesión</w>
set
setenta</w>
seu
seudó
seudópodos</w>
sex
sexo</w>
sexta</w>
sexto</w>
sexu
sexual</w>
sexualidad</w>
señ
seña</w>
señal
señal</w>
señalar</w>
señales</w>
señaló</w>
señas</w>
señor</w>
señora</w>
señoras</w>
señores</w>
señorita</w>
sfor
sh</w>
sham
si
si</w>
sia</w>
sible</w>
sic</w>
sid
sidad</w>
sido</w>
sie</w>
siempre</w>
siendo</w>
siente</w>
sienten</w>
siento</w>
sier</w>
sierra</w>
siesta</w>
siete</w>
sieurs</w>
sig
siga</w>
sigil
siglo</w>
siglos</w>
signi
signifi
significa
significa</w>
significaba</w>
signo</w>
signos</w>
sigo</w>
sigue</w>
siguen</w>
sigui
siguiendo</w>
siguiente</w>
siguientes</w>
siguiera</w>
siguieron</w>
siguió</w>
sil
silb
silbaba</w>
silbando</w>
silbato</w>
silbido</w>
silenci
silencio</w>
silencios</w>
silencioso</w>
silla</w>
sillas</w>
sillones</w>
sillón</w>
silu
silueta</w>
silva</w>
sim
sima</w>
simca</w>
simetría</w>
simo</w>
simos</w>
simpat
simpatía</w>
simple</w>
simplemente</w>
simples</w>
simpli
simpá
simu
simulacro</w>
simulacros</w>
simult
simultáne
simétri
sin
sin</w>
sincre
sini
sino</w>
sinti
sintiendo</w>
sintiera</w>
sintiéndose</w>
sintió</w>
sion
siones</w>
siquiera</w>
sir
sir</w>
siri
sirio</w>
sirva</w>
sirve</w>
sirven</w>
sirvi
sirvió</w>
sis</w>
sist
sistema</w>
sistemas</w>
sita</w>
sitas</w>
sitio</w>
sitios</w>
sito</w>
sitos</w>
situ
situación</w>
situarse</w>
sitúa</w>
sivamente</w>
sivo</w>
sién
sión</w>
sk
ski</w>
slip</w>
smith</w>
smo</w>
sno
snob</w>
so
so</w>
sober
soberanía</w>
sobr
sobra</w>
sobre
sobre</w>
sobren
sobrenombre</w>
sobres
sobresal
sobresaltó</w>
sobreviviente</w>
soci
social</w>
sociales</w>
sociedad</w>
soda</w>
sof
sofo
sofá</w>
soga</w>
soir</w>
sol
sol</w>
sola</w>
solamente</w>
solap
soldado</w>
soldados</w>
sole
soledad</w>
solem
soli
solici
solid
solidaridad</w>
solit
solitaria</w>
solitario</w>
sollo
sollozos</w>
solo</w>
solos</w>
soltaba</w>
soltando</w>
soltar</w>
soltarse</w>
soltó</w>
solu
soluciones</w>
solución</w>
som
sombr
sombra</w>
sombras</w>
sombrero</w>
sombreros</w>
some</w>
sommerard</w>
somos</w>
son
son</w>
sonaba</w>
sonar</w>
sonata</w>
soneto</w>
sonetos</w>
sonia</w>
sonido</w>
sonidos</w>
sonnet</w>
sonre
sonreía</w>
sonreír</w>
sonri
sonriendo</w>
sonriente</w>
sonrisa</w>
sonrisas</w>
sonrió</w>
sonríe</w>
sonám
sopa</w>
sopl
sopla</w>
soplaba</w>
sopor
soportar</w>
sor
sor</w>
sordos</w>
sorpr
sorprend
sorprendida</w>
sorprendido</w>
sorprendió</w>
sorpresa</w>
sorpresas</w>
sos
sos</w>
sospe
sospech
sospecha</w>
sospechaba</w>
sospechado</w>
sospechando</w>
sospechar</w>
sospechosa</w>
sosten
sostener</w>
sosteni
sostenido</w>
sosteniendo</w>
sostenía</w>
sostiene</w>
sostu
soto</w>
sotros</w>
sou
soy</w>
soñ
soñado</w>
soñando</w>
soñar</w>
soñoli
soñolienta</w>
soñé</w>
sp
sped</w>
spi
spino
st
st</w>
sta</w>
star</w>
stas</w>
ste
ste</w>
stein</w>
stes</w>
stewar
stewardess</w>
sti
stica</w>
sticamente</w>
sticas</w>
stico</w>
sticos</w>
sto
sto</w>
stop</w>
stos</w>
str
stra
stri
strof
stru
strucciones</w>
stu
su
su</w>
suave</w>
suavemente</w>
sub
sube</w>
subi
subido</w>
subiendo</w>
subir</w>
subió</w>
subli
subray
subterr
subur
subí</w>
subía</w>
suce
suced
sucede</w>
suceder</w>
sucedido</w>
sucediendo</w>
sucedió</w>
sucesivamente</w>
sucia</w>
sucias</w>
sucio</w>
sucios</w>
sud
sudamericano</w>
sudamericanos</w>
sudor</w>
sue
sueco</w>
suel
suela</w>
suele</w>
suelen</w>
suelo</w>
suelta</w>
sueltas</w>
suelto</w>
sueltos</w>
suena</w>
suerte</w>
sueño</w>
sueños</w>
sufici
suficiencia</w>
suficiente</w>
sufr
sufri
sufrir</w>
sui
suici
suicidado</w>
suje
sujet
sujetaba</w>
sujeto</w>
sujetos</w>
sul
sum
suma</w>
sumaba</w>
sumamente</w>
sumir</w>
sumo</w>
supe</w>
super
superfici
superficie</w>
superi
superior</w>
superiores</w>
supermercado</w>
supi
supiera</w>
supieras</w>
supli
supo</w>
supone</w>
suponer</w>
supongo</w>
suponiendo</w>
suposi
supositorio</w>
supuesta</w>
supuesto</w>
sur
sur</w>
sura</w>
surge</w>
surre
surrealistas</w>
sus
sus</w>
susci
suscitar</w>
suspen
suspir
suspira</w>
suspiraba</w>
suspirando</w>
suspiro</w>
suspiros</w>
suspiró</w>
sust
sustanti
sustitu
sustituciones</w>
susur
susurro</w>
sutil</w>
sutiles</w>
suya</w>
suyas</w>
suyo</w>
suyos</w>
suárez</w>
sw
swing</w>
sá
sábado</w>
sábados</w>
sábana</w>
sábanas</w>
sán
sè
sèvres</w>
sé
sé</w>
séptima</w>
sí
sí</w>
símbo
sín
síntesis</w>
só
sólo</w>
sótano</w>
sú
t
t</w>
ta
ta</w>
tab
taba</w>
tabaco</w>
taban</w>
tabas</w>
tabl
table</w>
tablemente</w>
tablero</w>
tables</w>
tablones</w>
tablón</w>
tabure
taburete</w>
tac</w>
tacho</w>
taciones</w>
tacita</w>
tación</w>
tacto</w>
tad</w>
tada</w>
tadamente</w>
tadas</w>
tades</w>
tado</w>
tador</w>
tados</w>
taj
tajada</w>
tajo</w>
tal
tal</w>
tales</w>
tali
talidad</w>
talita</w>
tall
taller</w>
talmente</w>
tam
tamaño</w>
también</w>
tamente</w>
tamos</w>
tampoco</w>
tan
tan</w>
tana</w>
tancia</w>
tando</w>
tane
taneidad</w>
tanes</w>
tango</w>
tangos</w>
tano</w>
tanos</w>
tant
tanta</w>
tantas</w>
tante</w>
tanteando</w>
tantes</w>
tanto</w>
tantos</w>
tap
tapa</w>
tapar
tapi
tapioca</w>
tapiz</w>
tapó</w>
tar
tar</w>
tara</w>
taran</w>
tarde</w>
tardes</w>
tarea</w>
tarje
tarjeta</w>
tarjetas</w>
tarla</w>
tarle</w>
tarlo</w>
tarlos</w>
tarme</w>
taron</w>
tarot</w>
tarse</w>
taré</w>
taría</w>
tarían</w>
tas
tas</w>
tata</w>
taunus</w>
taxi</w>
taxis</w>
taza</w>
tazas</w>
te
te</w>
tea</w>
tear</w>
teatr
teatro</w>
teatros</w>
tec
teca</w>
techo</w>
teclado</w>
tecn
tecnología</w>
tedi
tej
tejo</w>
tel
tel</w>
tela</w>
tele
telefon
telefone
telefonear</w>
telegr
telegrama</w>
telegramas</w>
teles</w>
televisión</w>
tell
telo</w>
teléfono</w>
teléfonos</w>
telón</w>
tem
tema</w>
temas</w>
tembl
temblaba</w>
temblaban</w>
temblando</w>
temblar</w>
temblor
temblor</w>
temer
temor</w>
temos</w>
temp
temperatura</w>
tempor
temporal</w>
tempr
temprano</w>
temps</w>
ten
ten</w>
tencia</w>
tend
tendencia</w>
tenderse</w>
tendida</w>
tendido</w>
tendió</w>
tendr
tendremos</w>
tendrá</w>
tendrás</w>
tendré</w>
tendría</w>
tendríamos</w>
tendrían</w>
tendrías</w>
tendía</w>
tendían</w>
tenedor</w>
tenemos</w>
tener</w>
tenerse</w>
tenga</w>
tengamos</w>
tengan</w>
tengo</w>
teni
tenido</w>
teniendo</w>
teniente</w>
teniéndose</w>
tenor</w>
tenso</w>
tent
tentación</w>
tentativa</w>
tentativas</w>
tenés</w>
tenía</w>
teníamos</w>
tenían</w>
tenías</w>
teo</w>
teor
teoría</w>
teorías</w>
ter
ter</w>
tera</w>
terapia</w>
teras</w>
tercer</w>
tercera</w>
tercero</w>
terci
terciopelo</w>
teri
termin
termina</w>
terminaba</w>
terminado</w>
terminar</w>
termine</w>
terminó</w>
termómetro</w>
tern
ternura</w>
tero</w>
teros</w>
terr
terraza</w>
terre</w>
terren
terreno</w>
terri
terrible</w>
terriblemente</w>
terribles</w>
territorio</w>
terror</w>
terrón</w>
tertu
tería</w>
tes
tes</w>
tesis</w>
tesoro</w>
testi
testigo</w>
testigos</w>
teto</w>
tex
texto</w>
textos</w>
tez</w>
teñ
th
th</w>
the
the</w>
theloni
ther</w>
there</w>
thi
tho
thu
ti
ti</w>
tibia</w>
tibio</w>
tibios</w>
tic</w>
tica</w>
ticamente</w>
ticas</w>
tico</w>
ticos</w>
tida</w>
tidad</w>
tidi
tido</w>
tie</w>
tiembla</w>
tiembre</w>
tiempo</w>
tiempos</w>
tien
tienda</w>
tiendas</w>
tiende</w>
tiendo</w>
tiene</w>
tienen</w>
tienes</w>
tienne</w>
tier
tierra</w>
tierras</w>
tig
tigio</w>
tigo</w>
tigre</w>
tigres</w>
tij
tijeras</w>
til</w>
tiles</w>
tilla</w>
tillas</w>
tilo</w>
tim
timbre</w>
time</w>
tin
tin</w>
tines</w>
tini
tino</w>
tinta</w>
tinti</w>
tinto</w>
tio</w>
tios</w>
tipo</w>
tipos</w>
tir
tir</w>
tira</w>
tiraba</w>
tiraban</w>
tirada</w>
tirado</w>
tirados</w>
tiran
tiran</w>
tirando</w>
tiranuelo</w>
tirar</w>
tirara</w>
tirarse</w>
tiro</w>
tiron
tirse</w>
tirándose</w>
tiré</w>
tiró</w>
tirón</w>
tis
tis</w>
tismo</w>
tita</w>
titi
tito</w>
titos</w>
titu
titube
titud</w>
titular</w>
tiv
tiva</w>
tivamente</w>
tivas</w>
tivo</w>
tivos</w>
tiz
tiza</w>
tizas</w>
tió</w>
tle</w>
to
to</w>
toalla</w>
toallas</w>
tobillo</w>
tobillos</w>
tobo
toc</w>
toca</w>
tocaba</w>
tocadiscos</w>
tocando</w>
tocar</w>
toco</w>
tocándose</w>
tocó</w>
toda</w>
todas</w>
todavía</w>
todo</w>
todos</w>
toi
toi</w>
tol
toler
tolerable</w>
tom
toma</w>
tomaba</w>
tomada</w>
tomado</w>
tomamos</w>
toman</w>
tomando</w>
tomar
tomar</w>
tomara</w>
tomaron</w>
tomarse</w>
tomas</w>
tomos</w>
tomá</w>
tomás</w>
tomé</w>
tomó</w>
ton
ton</w>
toncito</w>
tono</w>
tonta</w>
tontería</w>
tonterías</w>
tonto</w>
tontos</w>
topi
topitopi
topo
topos</w>
tor
tor</w>
tora</w>
torbell
torbellino</w>
tores</w>
tori
toria</w>
toriamente</w>
torio</w>
torios</w>
torment
tormenta</w>
tornillo</w>
torno</w>
toro</w>
toros</w>
torpe
torpe</w>
torpemente</w>
torpes</w>
torpeza</w>
torre</w>
torta</w>
tortas</w>
tortuga</w>
tortugas</w>
tortura</w>
torturas</w>
tos
tos</w>
tost
tota</w>
total</w>
totalmente</w>
tou
tour</w>
tous</w>
tout</w>
tr
tra
tra</w>
trab
trabaj
trabaja</w>
trabajaba</w>
trabajan</w>
trabajando</w>
trabajar</w>
trabajo</w>
trabajos</w>
trabajosamente</w>
tradi
tradición</w>
tradu
traducción</w>
traducido</w>
traducir</w>
trae</w>
traer</w>
traerle</w>
trag
tragando</w>
tragar</w>
tragedi
tragedia</w>
trago</w>
tragos</w>
trai
traición</w>
traigo</w>
traj
traje</w>
trajo</w>
tram
tramos</w>
trampa</w>
trampas</w>
tran
tranqui
tranquila</w>
tranquilamente</w>
tranquilidad</w>
tranquiliz
tranquilizó</w>
tranquilo</w>
tranquilos</w>
trans
transcur
transilvani
transmi
transpar
transparente</w>
transparentes</w>
tranvía</w>
tranvías</w>
trapo</w>
trapos</w>
tras
tras</w>
trascend
trasero</w>
traslad
traste</w>
trat
trata</w>
trataba</w>
tratado</w>
tratando</w>
tratar</w>
tratara</w>
tratativa</w>
trato</w>
trató</w>
trauma
traveler</w>
través</w>
traía</w>
traído</w>
tre
tre</w>
trece</w>
trecho</w>
tregua</w>
trein
treinta</w>
trem
tren
tren</w>
trenes</w>
trepar</w>
tres
tres</w>
trescientos</w>
tri
trib
tribu
trica</w>
trico
tridente</w>
trist
triste</w>
tristemente</w>
tristes</w>
tristeza</w>
triun
triunf
trivi
tro
tro</w>
trom
trompeta</w>
tron
tronco</w>
trope
tropez
tros</w>
trou
trouille</w>
tru
truco</w>
trá
tráfico</w>
trágico</w>
trán
tránsito</w>
tré
trépat</w>
tró
ts</w>
tsong</w>
tte</w>
tti</w>
tu
tu</w>
tual</w>
tuales</w>
tualmente</w>
tuar</w>
tuber
tubo</w>
tubos</w>
tud</w>
tudes</w>
tudos</w>
tuer
tulipán</w>
tulo</w>
tulos</w>
tum
tumba</w>
tumul
tun
tuosos</w>
tur
tura</w>
turas</w>
turb
turi
turista</w>
turistas</w>
turn
turno</w>
tus</w>
tute
tuve</w>
tuvi
tuviera</w>
tuvieran</w>
tuvieron</w>
tuvo</w>
tuya</w>
tuyo</w>
tw
two</w>
ty</w>
tá
táci
tándole</w>
tándome</w>
tándose</w>
tás</w>
té
té</w>
téc
técnica</w>
tér
término</w>
términos</w>
tí
tía</w>
tían</w>
tías</w>
tími
tímidamente</w>
tímido</w>
tín</w>
tío</w>
tíos</w>
típi
típico</w>
títulos</w>
tó
tó</w>
tón</w>
tú
tú</w>
túa</w>
tún
túnel</w>
u
u</w>
ubi
ubicuidad</w>
ue
uel</w>
uela</w>
uelas</w>
uelo</w>
uelos</w>
uf
ul
ular</w>
um
um</w>
umbra</w>
umbral</w>
umbre</w>
un
un</w>
una</w>
unanimidad</w>
unas</w>
unci
uncia</w>
uncio</w>
une</w>
unesco</w>
uni
unicornio</w>
unidad</w>
unidades</w>
unidos</w>
univer
univers
universal</w>
universi
universidad</w>
universo</w>
uno</w>
unos</w>
up</w>
ur
ur</w>
ura</w>
urani
urania</w>
uras</w>
ure
uro</w>
urre
urs</w>
urugu
uruguay</w>
us
us</w>
usa</w>
usaba</w>
usada</w>
usados</w>
usando</w>
usar</w>
usi
uso</w>
ust
usted</w>
ustedes</w>
usu
usuales</w>
ut</w>
uti
utiliz
ux</w>
uza</w>
uña</w>
uñas</w>
v
va
va</w>
vac
vacaciones</w>
vaci
vacilar</w>
vacía</w>
vacías</w>
vacío</w>
vad
vade</w>
vag
vaga</w>
vagabun
vagamente</w>
vagando</w>
vagar</w>
vagas</w>
vago</w>
vagos</w>
vaivén</w>
val
val</w>
valdría</w>
vale</w>
valen</w>
valentin</w>
valentín</w>
valené</w>
valga</w>
vali
valido</w>
valija</w>
valli</w>
valor</w>
valores</w>
valía</w>
vam
vamente</w>
vamos</w>
vampir
van
van</w>
vanamente</w>
vani
vanidad</w>
vano</w>
var
var</w>
vari
varias</w>
variedad</w>
varillas</w>
varios</w>
vas</w>
vaso</w>
vasos</w>
vati
vay
vaya</w>
vayan</w>
vayas</w>
ve
ve</w>
vea</w>
veces</w>
veci
vecina</w>
vecino</w>
vecinos</w>
vege
veget
vegetal</w>
vegetales</w>
vehem
vehemente</w>
vehí
vein
veinte</w>
veinti
veinticinco</w>
vej
vel
vela</w>
velada</w>
velador</w>
velario</w>
velas</w>
veleta</w>
velle</w>
velo
velocidad</w>
velorio</w>
vemos</w>
ven
ven</w>
vena</w>
venas</w>
vencer</w>
venci
vencido</w>
vend
vende
vendedora</w>
venden</w>
vender
vender</w>
venderle</w>
vendido</w>
vendría</w>
vendía</w>
veneno</w>
venga</w>
vengan</w>
venganza</w>
vengas</w>
vengo</w>
veni
venida</w>
venido</w>
venir</w>
vent
ventaja</w>
ventajas</w>
ventana</w>
ventanas</w>
ventani
ventanilla</w>
ventanillas</w>
ventil
ventu
vení</w>
venía</w>
venían</w>
veo</w>
ver
ver</w>
verano</w>
veras</w>
verb
verbal</w>
verbo</w>
verbos</w>
verdad
verdad</w>
verdadera</w>
verdaderamente</w>
verdaderas</w>
verdadero</w>
verde</w>
verdes</w>
verdugo</w>
vereda</w>
veres</w>
vergüenza</w>
veri
verificar</w>
verja</w>
verla</w>
verle</w>
verlo</w>
verlos</w>
verme</w>
vers
versa</w>
verse</w>
versión</w>
verso</w>
versos</w>
verte</w>
verti
vertical</w>
vertigin
vertiginosa</w>
vertiginosamente</w>
vertiginoso</w>
verá</w>
verás</w>
veré</w>
vería</w>
ves</w>
vesti
vestida</w>
vestido</w>
vestidos</w>
vete</w>
vetu
vez</w>
veía</w>
veían</w>
vi
vi</w>
via</w>
viaj
viajan</w>
viajante</w>
viajar</w>
viaje</w>
viajes</w>
vibr
vibración</w>
vibrar</w>
vic
viceversa</w>
vid
vida</w>
vidad</w>
vidas</w>
vide
vidente</w>
vido</w>
vidri
vidrio</w>
vidrios</w>
vie
vieira</w>
viej
vieja</w>
viejas</w>
viejito</w>
viejo</w>
viejos</w>
vien
viena</w>
viendo</w>
viene</w>
vienen</w>
viento</w>
vientre</w>
viera</w>
vieran</w>
vieras</w>
viernes</w>
vieron</w>
vigi
vigilia</w>
viii</w>
vil</w>
viles</w>
villa</w>
ville</w>
vin
vina</w>
vinc
vincent</w>
vinci
vine</w>
vini
viniendo</w>
viniera</w>
vinieron</w>
vino</w>
vio</w>
viol
violación</w>
violencia</w>
violenta</w>
violentamente</w>
violeta</w>
violetas</w>
violon
violín</w>
vir
virtu
virtud</w>
vis
visados</w>
visi
visible</w>
visibles</w>
visiones</w>
visita</w>
visitar</w>
visitas</w>
visión</w>
vist
vista</w>
vistas</w>
visto
visto</w>
vistosa</w>
vistosamente</w>
vistoso</w>
visual</w>
vitae</w>
vitr
vitrinas</w>
viu
viv
viva</w>
vivas</w>
vive</w>
viven</w>
vivencia</w>
vivi
vivido</w>
viviendo</w>
vivienne</w>
vivientes</w>
vivimos</w>
vivir</w>
vivo</w>
vivos</w>
vivía</w>
vivíamos</w>
vo
vo</w>
vocab
vocabulario</w>
voces</w>
voci
vocifer
vodka</w>
vol
volando</w>
volante</w>
volaná</w>
volar</w>
volcado</w>
volkswagen</w>
voll</w>
volu
volución</w>
volumen</w>
volun
voluntad</w>
volv
volver
volver</w>
volveremos</w>
volverse</w>
volverá</w>
volvería</w>
volvi
volviendo</w>
volviera</w>
volviste</w>
volviéndose</w>
volvió</w>
volví</w>
volvía</w>
volvían</w>
vomi
vomit
vomitar</w>
vor
vos</w>
vous</w>
voy
voy</w>
voz</w>
vra
vre</w>
vu
vuel
vuelo</w>
vuelta</w>
vueltas</w>
vuelto</w>
vueltos</w>
vuelva</w>
vuelve</w>
vuelven</w>
vuelvo</w>
vuf</w>
vul
vulgar</w>
vuél
vá
vámonos</w>
vér
vértigo</w>
vés</w>
ví
vía</w>
vían</w>
vías</w>
vícti
víctima</w>
vómito</w>
vómitos</w>
w
w</w>
wal
war
wat
water</w>
we
we</w>
wel
well</w>
wh
when</w>
whi
whisk
whisky</w>
wi
wil
will</w>
win
wind</w>
wit
with</w>
wn</w>
wolf</w>
wong</w>
woody</w>
wunna</w>
x
x</w>
xen
xi
xim
xima</w>
xiros</w>
xo</w>
y
y</w>
ya</w>
yan
yas</w>
ye</w>
yec
yen</w>
yendo</w>
yer
yera</w>
yerba</w>
yeron</w>
yes</w>
yeso</w>
yin</w>
yn
yo
yo</w>
yon
yonder</w>
yos</w>
you</w>
your</w>
yu
yux
yéndose</w>
yó</w>
z
z</w>
za
za</w>
zaba</w>
zaban</w>
zada</w>
zadas</w>
zado</w>
zados</w>
zagu
zaguán</w>
zam
zan
zan</w>
zando</w>
zante</w>
zapa
zapatillas</w>
zapato</w>
zapatos</w>
zar
zar</w>
zarse</w>
zas</w>
zca</w>
zcan</w>
zco</w>
zen</w>
zi
zio</w>
zip
zipper</w>
zmente</w>
zo
zo</w>
zodiacal</w>
zombie</w>
zon
zona</w>
zonas</w>
zos</w>
zu
zum
zumbido</w>
zz
zás</w>
zó</w>
zón</w>
½
à</w>
á
á</w>
áb
ábamos</w>
áci
ácido</w>
ácidos</w>
áculo</w>
áfor
ági
águi
ál
álbum</w>
áli
álogo</w>
ám
ámi
án
án</w>
ándo
ándola</w>
ándolas</w>
ándole</w>
ándoles</w>
ándolo</w>
ándolos</w>
ándome</w>
ándonos</w>
ándose</w>
ándote</w>
áne
ánea</w>
áneo</w>
áneos</w>
ángel</w>
ángeles</w>
ángu
ángulo</w>
ánico</w>
ánimo</w>
ántica</w>
ánticas</w>
ár
áramos</w>
árbol</w>
árboles</w>
ármela</w>
árse
árselo</w>
ás
ás</w>
ási
ática</w>
áticamente</w>
áticas</w>
ático</w>
â
ä
än
ç
ça</w>
è
èle</w>
ème</w>
ène</w>
ère</w>
ès</w>
é
é</w>
él
él</w>
éli
élite</w>
én
én</w>
éndo
éndola</w>
éndole</w>
éndolo</w>
éndolos</w>
éndome</w>
éndonos</w>
éndose</w>
época</w>
ér
éramos</w>
érco
éri
érica</w>
éricamente</w>
éricas</w>
érico</w>
érse
érselo</w>
és</w>
ésa</w>
ésas</w>
ése</w>
ésta</w>
éste</w>
éstos</w>
ética</w>
ético</w>
étri
éu
éxi
éxito</w>
ê
ë
ì
í
í</w>
ía</w>
íamos</w>
ían</w>
ías</w>
íbamos</w>
íbulo</w>
ída</w>
ídem</w>
ído
ído</w>
ífi
ífica</w>
ífico</w>
ín
ín</w>
índice</w>
ínti
ío</w>
íos</w>
ír
íri
ís</w>
ísi
ísima</w>
ísimas</w>
ísimo</w>
ísimos</w>
ística</w>
ístico</w>
î
ï
ñ
ña</w>
ñas</w>
ñata</w>
ñato</w>
ñatos</w>
ñi
ño</w>
ños</w>
ñoso</w>
ñó</w>
ó
ó</w>
ógeno</w>
ógrafo</w>
ólogos</w>
óm
ómi
ómnibus</w>
ón</w>
ónica</w>
ónicamente</w>
ónicas</w>
ónico</w>
ónicos</w>
óp
ópera</w>
ópoli
ór
órdenes</w>
óri
ótica</w>
ótico</w>
óticos</w>
ô
ö
ú
ú</w>
úa</w>
úes</w>
últi
última</w>
últimas</w>
último</w>
últimos</w>
ún</w>
única</w>
único</w>
útil</w>
útiles</w>
û
ü