a </w>
e </w>
o </w>
s </w>
e n
, </w>
e r
n </w>
a r
d e</w>
o s</w>
l </w>
q u
. </w>
e s
l a</w>
o r
a s</w>
y </w>
a n
qu e</w>
e l</w>
c o
d o</w>
a b
c i
en </w>
en t
e s</w>
a l
a d
u n
i n
s e</w>
s i
d i
a m
t r
í a</w>
r e
l o</w>
o n
t i
or </w>
u n</w>
l os</w>
ar </w>
c u
i r
n o</w>
es t
s u
a n</w>
e m
l i
a s
c h
p ar
un a</w>
t a</w>
er </w>
l e</w>
p er
v i
a l</w>
l as</w>
r i
t e</w>
t o</w>
ent e</w>
v e
m o</w>
a c
m i
er a</w>
d e
ab a</w>
ó </w>
a do</w>
ó n</w>
co n
t o
p or</w>
co n</w>
d el</w>
p r
p o
s o
j o</w>
g u
an do</w>
b r
m e</w>
l e
p e
p i
a ci
p u
h ab
á s</w>
d es
c o</w>
b i
s e
ad a</w>
d a</w>
co mo</w>
í </w>
e l
s t
par a</w>
m u
é </w>
a g
per o</w>
a t
m e
o l
c a</w>
á </w>
m an
z </w>
o s
u r
qu i
am ente</w>
c a
di jo</w>
l u
d ad
su </w>
ent r
si </w>
d os</w>
m ás</w>
o m
g o</w>
al i
g r
t en
f i
e c
an t
d o
f u
dad </w>
o tr
c ar
h or
v er
ir a</w>
o li
l l
e x
hab ía</w>
e d
t er
br e</w>
p or
p a
en ci
pr o
n i
z a</w>
oli ve
olive ira</w>
y a</w>
ar i
ir </w>
n o
y o</w>
tr a
aci ón</w>
b u
é s</w>
co m
p re
t u
to do</w>
c am
on es</w>
i m
á n
? </w>
m ir
qu é</w>
p l
r o
p as
p en
a z
ent o</w>
es o</w>
a j
h ac
m a</w>
ch o</w>
en do</w>
f r
am os</w>
co s
p o</w>
a v
an te</w>
í an</w>
ar se</w>
si n</w>
es a</w>
c or
s ab
; </w>
er o</w>
c l
c re
v a</w>
a u
l es</w>
ab an</w>
cu ando</w>
u e
s o</w>
ch e</w>
d </w>
h i
mi s
m o
t an</w>
: </w>
r es
as ta</w>
c es</w>
n os</w>
su s</w>
e j
po co</w>
t os</w>
d ía</w>
m ag
c e</w>
ci ón</w>
ve z</w>
c al
or i
in o</w>
l le
ad os</w>
ti en
s al
h u
o n</w>
por que</w>
án do
a ñ
h a
h asta</w>
g i
l o
hor a</w>
es e</w>
v os</w>
r a</w>
g un
d on
c an
ve l
p on
b o
r </w>
t e
f er
t as</w>
est aba</w>
con tr
entr e</w>
p al
mag a</w>
n ada</w>
d as</w>
c as</w>
bi en</w>
est á</w>
v o
c as
s ent
an a</w>
r u
enci a</w>
m ar
par ec
t ar
mi </w>
se gu
n e
i s
ha y</w>
est o</w>
en d
as í</w>
de ci
v ol
b a</w>
an d
t </w>
pen s
c er
p ri
m en
j os</w>
em pr
i do</w>
b le</w>
est a</w>
e za</w>
m in
otr a</w>
tra vel
travel er</w>
r o</w>
me j
a jo</w>
al go</w>
con t
hab l
d u
ent a</w>
r a
es per
t ali
c ri
a h
am i
m on
si empr
siempr e</w>
ti em
c ab
de j
so bre</w>
me di
c ó
re g
ci n
ur a</w>
man o</w>
h a</w>
s er
des pu
despu és</w>
s er</w>
f or
ant es</w>
m a
c os</w>
é l</w>
c ada</w>
tali ta</w>
don de</w>
mis mo</w>
v o</w>
al es</w>
r on
m or
ad i
mej or</w>
p li
otr o</w>
pri m
s í</w>
é n</w>
es i
b er
v en
í as</w>
t an
tiem po</w>
se ñ
no che</w>
al g
h om
b l
r e</w>
di s
t am
c t
v er</w>
mu y</w>
s on
em ente</w>
g a</w>
l ado</w>
cos as</w>
c e
a gu
ch a</w>
si l
es tr
ar a</w>
aci o</w>
t ar</w>
cu r
pu e
ad as</w>
v u
ca si</w>
a hora</w>
or es</w>
qu e
el la</w>
v e</w>
u s</w>
to dos</w>
qu er
em pe
aci a</w>
s a</w>
p a</w>
j u
ent es</w>
qu ed
f in
t a
d em
h er
so l
ar ri
cos a</w>
en a</w>
co l
ari o</w>
os a</w>
ab le</w>
m ente</w>
in a</w>
de b
s ta</w>
m os</w>
des de</w>
r ía</w>
cu er
os o</w>
ci a</w>
in g
es pe
m om
s ti
n e</w>
v ent
vu el
ah í</w>
gu i
ándo se</w>
empe z
or d
s a
mi entr
mientr as</w>
in ter
po d
ten ía</w>
a tr
é n
í o</w>
á n</w>
er i
t al</w>
a si
er ta</w>
ll am
u st
un o</w>
a qu
ab r
car a</w>
h o
hu bi
su e
tien e</w>
men os</w>
ti r
lle g
ed </w>
o jos</w>
p at
bu s
so n</w>
em os</w>
com pr
b ab
ent os</w>
aci ones</w>
ent on
hor acio</w>
ch i
c ar</w>
enton ces</w>
al l
ñ o</w>
m un
mom ento</w>
tam bi
tambi én</w>
ni </w>
n u
f on
c ía</w>
hac er</w>
est e</w>
er to</w>
ali dad</w>
en di
or a</w>
po si
cu l
e t
h acia</w>
en o</w>
ve ces</w>
con o
pr es
l lo</w>
ar r
a un
có mo</w>
aun que</w>
g ol
o b
an o</w>
h e</w>
o vi
d er
ú n</w>
pre gun
t aba</w>
al qui
es cri
est u
s ac
mu ch
t or
z o</w>
man era</w>
er an</w>
i </w>
ci ones</w>
a ir
contr a</w>
d or
fu era</w>
al mente</w>
cu enta</w>
mun do</w>
er on</w>
ex pli
tr an
ar ía</w>
g ri
l la</w>
hubi era</w>
si ón</w>
f al
tr i
ar on</w>
po día</w>
b aj
tan to</w>
m ad
deci r</w>
er as</w>
parec e</w>
g an
di ce</w>
cu alqui
pue de</w>
h e
t ó</w>
t amente</w>
aqu í</w>
to m
g reg
entr o</w>
í s</w>
i ba</w>
tu </w>
b e
hom bre</w>
ur </w>
j a</w>
mu cho</w>
m as</w>
alg una</w>
es as</w>
tr es</w>
s os</w>
est ar</w>
par te</w>
ust ed</w>
lu cas</w>
br a</w>
es os</w>
v al
greg or
gregor ovi
gregorovi us</w>
l á
fu e</w>
es ti
cas a</w>
b ar
p e</w>
e ci
g en
g os</w>
j o
em p
l í
pi eza</w>
vi da</w>
vi e
aj e</w>
d av
espe ci
ron al
es cu
én do
f ec
ronal d</w>
to das</w>
to dav
todav ía</w>
en contr
b as
a pen
i s</w>
mu j
s to</w>
n ue
tien ne</w>
lle v
n un
hac e</w>
cam bi
e tienne</w>
tr os</w>
u m
m at
apen as</w>
agu a</w>
ab ajo</w>
nun ca</w>
pu erta</w>
pre ci
s tr
m í</w>
er te</w>
ar o</w>
ar lo</w>
m am
b or
p ir
un i
l a
l ti
vie jo</w>
re alidad</w>
cam a</w>
air e</w>
gr an</w>
di do</w>
r az
qui er
cab eza</w>
t ura</w>
j e
ca f
l ar
to da</w>
n ec
n adi
f un
i da</w>
s ó
nadi e</w>
am a</w>
ct or</w>
pu esto</w>
mam á</w>
man os</w>
g o
a f
b al
ab i
im ag
d ar</w>
s é</w>
m al</w>
az o</w>
fi n</w>
p un
añ os</w>
g ar</w>
pi o</w>
é r
bo ca</w>
sab er</w>
ad or</w>
d es</w>
su b
ne gr
m al
pal abr
in st
on i
palabr as</w>
a ti
end er</w>
ori o</w>
li a</w>
ac ab
ci l</w>
o cur
c amente</w>
ú lti
er os</w>
b o</w>
le v
c </w>
s ali
bab s</w>
d ado</w>
fon do</w>
v as</w>
f e
pa ñ
lu z</w>
g </w>
p t
l las</w>
ci o</w>
d ar
a y
d ur
tar de</w>
só lo</w>
u l
t ante</w>
caf é</w>
u s
br es</w>
t ab
sol amente</w>
mi ento</w>
t em
dem asi
li g
í si
ac e
cu ar
un os</w>
m añ
co st
parec ía</w>
re ci
cualqui er</w>
o ur</w>
en c
se gun
mi t
cal le</w>
z as</w>
al e
ll or
hab ían</w>
s an
el li
otr os</w>
p es
á r
b ol
er se</w>
demasi ado</w>
i z
per i
ti ca</w>
señ ora</w>
in i
cin co</w>
n a</w>
p os</w>
en i
j un
cer r
ci e
g e
ad </w>
mañ ana</w>
c lu
á b
ber t
in ci
a to</w>
gol pe</w>
im por
p </w>
ori a</w>
c ron
t on
l emente</w>
ent i
al gun
ir se</w>
al can
ci on
cron o
qui z
ch ar
m os
t es</w>
gu st
fin al</w>
habl ar</w>
mis ma</w>
f l
much a
vo z</w>
v ía</w>
sab e</w>
so m
ci r
ten go</w>
en fer
an za</w>
mor elli
ac er
li br
prim era</w>
t ado</w>
at ur
quiz á</w>
h </w>
s in
p le
an cia</w>
n om
ú </w>
b </w>
par eci
ni co</w>
posi ble</w>
hac ía</w>
í amos</w>
mir ando</w>
d ías</w>
a vi
d aba</w>
ro cam
rocam ad
rocamad our</w>
so y</w>
cl aro</w>
j ue
es p
di fer
si m
b a
si do</w>
vent ana</w>
vi ej
fu er
con ci
u </w>
c ado</w>
morelli </w>
muj er</w>
pe lo</w>
su r
j as</w>
ari os</w>
fr an
vo y</w>
s or
i t
ab ri
éndo se</w>
m ar</w>
h an</w>
g as</w>
mu r
b ajo</w>
me ti
per fec
pens ar</w>
pa z</w>
i de
pens ó</w>
ni ca</w>
medi o</w>
o cu
ñ a</w>
otr as</w>
mo vi
ci g
he cho</w>
se a</w>
g al
a po
in as</w>
si g
cuer do</w>
min u
ar me</w>
ex tra
am or</w>
ar á</w>
n atur
el los</w>
mi s</w>
r en
bl an
raz ón</w>
am e</w>
ver dad</w>
hi st
em a</w>
ten d
ten er</w>
o f
p ag
alg ún</w>
ver dad
os amente</w>
o y</w>
tr é
t ía</w>
per son
escu ch
en e</w>
z ar</w>
entr ar</w>
c ación</w>
pu l
bu eno</w>
t ur
par ís</w>
x </w>
deci r
b li
especi e</w>
a se</w>
b ri
lev ant
bas tante</w>
pr esi
nu estr
s em
e do</w>
ad amente</w>
di o</w>
dad es</w>
í n</w>
c ed
p á
ra to</w>
ej emp
dor m
est oy</w>
i g
ac ción</w>
m er
ter min
v ino</w>
mi edo</w>
ci as</w>
sue ño</w>
gui en</w>
po bre</w>
imag in
ru e</w>
an i
tr o</w>
segu ir</w>
f á
al guien</w>
cu ri
cl av
sab ía</w>
n ing
m ent
vi d
sue lo</w>
al ej
c ción</w>
de cía</w>
vi si
ñ os</w>
di st
de l
c ant
e ch
cuer po</w>
e le
fr ente</w>
enci as</w>
v ag
ter ri
o y
atr ás</w>
le jos</w>
gen er
tr at
arri ba</w>
c ando</w>
pat </w>
si gui
t el
r á</w>
escri b
ti o</w>
v en</w>
atr o</w>
tré pat</w>
est os</w>
añ o</w>
f ami
v amos</w>
k </w>
end er
p in
z a
c aba</w>
ac to</w>
mir aba</w>
ser ía</w>
in e</w>
vi era</w>
p as</w>
c er</w>
s en
par ti
cig arri
í do</w>
un as</w>
ejemp lo</w>
de li
cre o</w>
g ar
vuel ta</w>
ab ra</w>
g ente</w>
m ol
sil enci
as o</w>
quer ía</w>
so lo</w>
mad re</w>
nue vo</w>
cu al</w>
! </w>
k i
pas o</w>
ar m
di ó</w>
pas ar</w>
m esa</w>
ami ento</w>
for ma</w>
az os</w>
br azo</w>
e o</w>
p ad
an e</w>
i o</w>
tr o
s pe
e go</w>
hor as</w>
k re
av e</w>
s mo</w>
c ti
bert he</w>
t orio</w>
al to</w>
der e
pe di
p ú
pi so</w>
tr e
ma te</w>
st as</w>
r osa</w>
s as</w>
di bu
negr o</w>
ch os</w>
all á</w>
cie lo</w>
si qui
om a</w>
hab er</w>
c ó</w>
v a
es c
com pañ
hi zo</w>
os as</w>
n aci
pt en</w>
pe or</w>
cu ad
sal ir</w>
fe li
pal abra</w>
b re
t ant
áb amos</w>
er ra</w>
c at
segu ida</w>
pu so</w>
des cu
a te</w>
so tros</w>
man ú</w>
nec esi
pi e</w>
er ía</w>
ge kre
gekre pten</w>
empez ó</w>
ord en</w>
ar le</w>
di ver
e z
pi en
gr u
est as</w>
po la</w>
s te</w>
c é
l ar</w>
x i
ma y
deb ajo</w>
ar la</w>
er es</w>
un ci
est ás</w>
on g</w>
is te</w>
pe d
qu in
pe g
ay u
j ero</w>
no sotros</w>
di cho</w>
com ple
vol vi
pa p
di j
est ado</w>
f ir
so lu
ú nico</w>
segun do</w>
ar d
l en
ándo le</w>
ocu p
ad el
crono pio</w>
mon t
f í
sent ido</w>
mir ar</w>
mir ó</w>
a cuerdo</w>
ag o</w>
c r
cas o</w>
v amente</w>
d amente</w>
vi o</w>
as om
pe l
b e</w>
m á
gr e</w>
su s
pue do</w>
d or</w>
an d</w>
an as</w>
tran qui
medi a</w>
ide a</w>
gu e</w>
v enci
b arri
lleg ar</w>
siqui era</w>
dorm ir</w>
si ones</w>
ve in
cu atro</w>
e z</w>
4 </w>
b an
quier e</w>
de dos</w>
cambi o</w>
ar g
prim ero</w>
0 </w>
mos tr
vi v
li dad</w>
no ve
ag r
cor ri
es pal
fr ío</w>
c ru
ti ó</w>
ú ti
m é
ca paz</w>
tr abajo</w>
s ino</w>
re almente</w>
fin i
es cal
e qui
l ó
vol ver</w>
8 </w>
am as</w>
do ctor</w>
c ali
cer ca</w>
ace p
en os</w>
d entro</w>
gan as</w>
m ó
res pon
d en
i di
pi er
pun to</w>
len gu
di era</w>
prim er</w>
est án</w>
fami lia</w>
en cu
deb ía</w>
di g
ver de</w>
ci erto</w>
po li
est aban</w>
nom bre</w>
n or
me t
iz quier
me tros</w>
c á
w ong</w>
e ta</w>
hab ría</w>
gr and
el las</w>
ab sur
si st
cu án
v an</w>
b les</w>
gener al</w>
de tr
detr ás</w>
cono ci
p h
pod ría</w>
ten és</w>
t in
apo y
di re
sor pr
f ri
alcan z
so spe
cigarri llo</w>
fá cil</w>
os os</w>
tr ab
i st
o cho</w>
res ul
t ando</w>
tran s
qu ina</w>
ti co</w>
sent ía</w>
cu lo</w>
sal u
e a</w>
señ or</w>
qui si
y endo</w>
so l</w>
f o
viej a</w>
e dad</w>
c ad
des per
ad em
ah </w>
est amos</w>
ac ord
el lo</w>
i lu
c le
l los</w>
re í
ari a</w>
ri ce</w>
vi ol
ent amente</w>
au to</w>
pro pi
clu b</w>
i endo</w>
h os
str u
sil lo</w>
ci u
pro bl
con fi
segu ro</w>
at os</w>
no ti
an im
ol or</w>
r as</w>
ing eni
por t
v es</w>
re pe
di fí
grand es</w>
en or
i gu
t í
in te
ed es</w>
bor de</w>
lá sti
lásti ma</w>
t or</w>
jo si
josi ane</w>
silenci o</w>
pl a
deb e</w>
ex ac
a pl
er lo</w>
li ter
trab aj
qui ero</w>
cal or</w>
e vi
últi mo</w>
d ó
lu gar</w>
que da</w>
co mi
vi a</w>
nec es
p ó
cuar to</w>
in c
mu erte</w>
ti po</w>
d ue
av an
hom bres</w>
pi el</w>
pa tio</w>
o h</w>
am ari
pe que
an o
ab solu
b ur
in f
tab l
m ú
at ura</w>
o g
dem ás</w>
ent </w>
em pl
pi ed
d r
et c</w>
pas a</w>
ning una</w>
sil la</w>
ingeni ero</w>
ta un
taun us</w>
cu m
arg ent
h ar
ac ari
p ar</w>
fi ci
an ti
pas ado</w>
ter r
er tas</w>
p ant
ami gos</w>
r adi
cl o
hist oria</w>
pr inci
3 </w>
esper anza</w>
c li
os si
d au
sa la</w>
mo do</w>
re mor
g ato</w>
a par
t é</w>
ne g
pon e</w>
gu ar
ar an</w>
muj eres</w>
ti r</w>
mi entos</w>
li z
al la</w>
for m
ale gr
si r
ossi p</w>
pi os</w>
dau ph
dauph ine</w>
t ío</w>
remor ino</w>
ra y
h ue
difí cil</w>
ándo lo</w>
cont in
fi j
a pre
de c
i a</w>
mú si
t ación</w>
cualqui era</w>
adem ás</w>
vein te</w>
m ira</w>
h aci
mir á</w>
cir co</w>
in úti
f ó
ce p
in cre
em pieza</w>
c an</w>
or o</w>
v ac
ll en
pl an
izquier da</w>
c entro</w>
f le
hom br
vuel ve</w>
pr on
minu tos</w>
d ente</w>
d er</w>
r ol
res pe
arr an
pens ando</w>
t el</w>
vi vi
é ri
em bar
r os</w>
ant e
f av
ab les</w>
va ya</w>
ser v
ar te</w>
endi do</w>
re vi
m as
hab rá</w>
cu i
ar ti
l lu
ec er</w>
ac ti
ten ido</w>
r om
g ir
g or
llam a</w>
so la</w>
fi gu
hi jo</w>
cin a</w>
di endo</w>
pon er</w>
j am
ent er
ab lemente</w>
son ri
qui én</w>
pareci ó</w>
man u
de t
c to</w>
del ante</w>
re pi
er tos</w>
bus car</w>
incre í
m ero</w>
i l
d ando</w>
idi o
pro fun
di go</w>
pro bab
presi ón</w>
di c
ve ía</w>
ti do</w>
con si
gol pe
alej and
barri o</w>
me tro</w>
libr o</w>
on a</w>
in con
re cor
se is</w>
vi sto</w>
exac tamente</w>
pú bli
pregun tó</w>
si s</w>
bu ena</w>
bu en</w>
cam in
baj a</w>
pi es</w>
lí ne
som bra</w>
segu ía</w>
b es
bus ca</w>
a cost
me z
du l
fal ta</w>
ciu dad</w>
algun as</w>
con se
i n</w>
esper ando</w>
1 </w>
ami go</w>
bo t
ser á</w>
lo j
min is
alejand ro</w>
cas as</w>
jun to</w>
ro de
can s
acari ci
ver se</w>
lu is</w>
at a
an os</w>
mat eri
endi ó</w>
on al</w>
t arse</w>
peri co</w>
y o
tant as</w>
all í</w>
contin u
fu m
o t
c en
quer ido</w>
algun os</w>
ar reg
tu d</w>
mit ad</w>
en de</w>
dar le</w>
su erte</w>
ven ir</w>
tien en</w>
estu viera</w>
di ci
neces ario</w>
pi tal</w>
ca er</w>
er le</w>
ocur r
2 </w>
est ú
estú pi
des a
músi ca</w>
as tr
a cu
tom ar</w>
agr ad
habl ando</w>
s amente</w>
o per
m ari
sab és</w>
vi ene</w>
impor ta</w>
ent ender</w>
do n</w>
res bal
cam i
se cre
s to
tan ta</w>
sub ir</w>
d est
aj es</w>
ch as</w>
ch ar</w>
con fu
pat os</w>
in vent
o í
tam poco</w>
ch es</w>
man i
es ca
a compañ
pu esta</w>
ti s
res pir
emp le
n de</w>
5 </w>
l av
volvi ó</w>
dist in
hab it
ru m
as te</w>
lar go</w>
le ta</w>
ue la</w>
fuer za</w>
bu enos</w>
az u
d in
car i
e t</w>
vol vía</w>
enci ma</w>
pad re</w>
car ta</w>
le er</w>
probab lemente</w>
mal o</w>
ol vi
c ent
di ez</w>
viv ir</w>
so ñ
inter es
o jo</w>
n ú
t era</w>
f a
des p
gu sto</w>
chi co</w>
pre par
pu ente</w>
cam ino</w>
j i
i b
te le
haci endo</w>
si mu
l an
ho tel</w>
sus pir
tem bl
b asta</w>
sent ir</w>
lu m
ali z
f </w>
ci dad</w>
per ro</w>
pu diera</w>
d al
ord in
o p
e di
f amas</w>
natur al</w>
ar nos</w>
au to
dere cha</w>
be b
so st
blan co</w>
re z</w>
d an</w>
pas aje</w>
inst ante</w>
qui en</w>
llor ar</w>
de f
par ed</w>
n as</w>
v és</w>
ocur ri
pro du
po l
c era</w>
c ciones</w>
su l
d ó</w>
qu ej
so br
pron to</w>
r es</w>
pa to</w>
gu sta</w>
esper a</w>
am eri
mar ía</w>
so mos</w>
e va</w>
r ío</w>
cono c
pl ac
lá m
c el
fi c
za patos</w>
d é
may or</w>
pa que
di os</w>
o bra</w>
re l
fr as
de ber
ob lig
f e</w>
jam ás</w>
br us
á lo
ándo la</w>
alegr ía</w>
h on
to tal</w>
pu ed
an to</w>
quer és</w>
g esto</w>
gu to</w>
crono pios</w>
ti </w>
con venci
ju st
ju sto</w>
cre er</w>
es quina</w>
d om
est ab
men or</w>
her mano</w>
t ales</w>
pres ent
si tu
dis cu
l entamente</w>
ll eno</w>
os curi
oscuri dad</w>
bi do</w>
uni dad</w>
si ll
có n
fer ra
ferra guto</w>
pap el</w>
ísi mo</w>
est </w>
ven ía</w>
h am
mucha cha</w>
and ar</w>
cor por
a p
or as</w>
ro jo</w>
ll ave</w>
qued aba</w>
pon ía</w>
p an</w>
libr os</w>
su per
probl ema</w>
n ari
br azos</w>
ver s
pas ó</w>
ust edes</w>
inst al
ameri can
cuar enta</w>
li sta</w>
em pu
m era</w>
tel é
telé fon
em manu
è le</w>
f ama</w>
pre fer
mad ame</w>
a pro
dij e</w>
ag arr
al tura</w>
b lu
le ct
ti vo</w>
fr ase</w>
pod er</w>
segun da</w>
car los</w>
cl ar
lengu aje</w>
sent i
or ado</w>
vuel to</w>
adel ante</w>
yo u</w>
mu erto</w>
emmanu èle</w>
tabl ón</w>
cri st
llu via</w>
col or</w>
mi do</w>
lu ego</w>
jue go</w>
er r
mar avi
hor ri
públi co</w>
entr a</w>
t ér
in di
ac o</w>
é c
pl ena</w>
in fini
ci do</w>
hi ci
tr iste</w>
t ent
d ol
6 </w>
perfec tamente</w>
clo char
en as</w>
l am
cab o</w>
increí ble</w>
sa tis
dej a</w>
escal era</w>
er ías</w>
som br
a fuera</w>
cl í
mur mur
absur do</w>
fav or</w>
gr an
minis tr
terri torio</w>
cle lia</w>
g ada</w>
ca j
qued ó</w>
m </w>
lo co</w>
pi ano</w>
es es</w>
difer ente</w>
dej ar</w>
o c
f ísi
em as</w>
gru po</w>
ti cas</w>
qued arse</w>
tar le</w>
7 </w>
l abi
í n
cont est
a y</w>
dó nde</w>
a pag
cont ar</w>
su el
t he</w>
cor re
sill ón</w>
b oni
ra za</w>
tri st
me ter
hos pital</w>
ar es</w>
s for
compr ender</w>
s es</w>
ci al</w>
er me</w>
ni ño</w>
bl emente</w>
liter atura</w>
y os</w>
is la</w>
er amente</w>
gr aci
b at
imag en</w>
fran c
de do</w>
eri o</w>
ad mir
san gre</w>
cre e</w>
bi ó</w>
sal v
lu cía</w>
tr ag
c un
po ca</w>
si gue</w>
mar a</w>
ti va</w>
quisi era</w>
ir ía</w>
sen s
ab an
re loj
le ctor</w>
cu ca</w>
su ra</w>
espe jo</w>
vi o
sig ni
g ana</w>
raz ones</w>
tu s</w>
cab al
ti erra</w>
enor me</w>
1 9
re co
fó sfor
m es</w>
con du
per mi
ll ena</w>
tr as
naci onal</w>
ac </w>
e te</w>
su puesto</w>
c entr
últi ma</w>
inúti l</w>
ve ci
ad u
m enci
m em
espal da</w>
pued en</w>
v esti
f arm
y ec
d en</w>
pu es</w>
pi y
l at
h el
cu la</w>
g e</w>
añ a</w>
r esto</w>
hu mo</w>
gi co</w>
nuestr a</w>
a pr
des eo</w>
pon go</w>
ent as</w>
ab lo</w>
mu e
cu ra</w>
dere cho</w>
cl am
di co</w>
fu ego</w>
su m
l ados</w>
ib an</w>
ca ña</w>
ing </w>
extra ordin
in medi
t ados</w>
en es</w>
a ta</w>
bu t
4 0
pá g
aban don
tra ta</w>
ad ministr
v ini
dej aba</w>
v ari
se g
in vi
m í
an ci
cont ento</w>
sa in
cost um
hu bo</w>
empez ar</w>
al ma</w>
ad ores</w>
ca u
ob je
r abi
an zas</w>
is ta</w>
r se</w>
ju g
pro b
n ac
hor mi
ter cera</w>
empez aba</w>
en si
ñ as</w>
per dido</w>
des nu
r í
nari z</w>
vi l</w>
d k
pro f
v aso</w>
to n</w>
ag reg
w </w>
pe cho</w>
posi ción</w>
hab la</w>
due le</w>
po s
sti tu
lá gri
empu j
in os</w>
le che</w>
t ex
cón su
cónsu l</w>
d ent
a ch
ti llas</w>
p lu
seg ún</w>
ver des</w>
gr af
ro pa</w>
du </w>
d encia</w>
ati va</w>
air es</w>
po dido</w>
paque te</w>
gr acia</w>
reí r</w>
tr as</w>
movi miento</w>
dibu j
ci os</w>
materi a</w>
negr a</w>
blu es</w>
mi l</w>
di da</w>
t able</w>
princi pio</w>
mon te
dur ante</w>
difer encia</w>
am on
w el
au s
cir cun
so bre
re gi
bi o</w>
vi aj
er no</w>
lágri mas</w>
poli cía</w>
ha ya</w>
man a</w>
líne a</w>
piy ama</w>
ro que</w>
40 4</w>
pro cónsul</w>
la ur
c eni
for mas</w>
cl in
y ó</w>
abr ir</w>
h ú
col g
fr ac
ma la</w>
m el
apro ve
es fuer
az ón</w>
embar go</w>
encontr ar</w>
col ores</w>
a ur
vi sta</w>
ele g
car r
cor respon
de z</w>
o l</w>
idio ta</w>
j ard
al u
conci erto</w>
tend ría</w>
co le
en g
mi l
sospe ch
chi ca</w>
vi de
decir le</w>
espal das</w>
com ent
lleg ó</w>
di álo
f as
labi os</w>
ci entos</w>
b os</w>
t ada</w>
pa ís</w>
sali ó</w>
sali da</w>
di ario</w>
clí nica</w>
y er
ue lo</w>
ch a
com uni
t ec
ho jas</w>
teléfon o</w>
di a</w>
o ve
au tos</w>
la ura</w>
s and
laur ent</w>
re cono
terri ble</w>
fl or</w>
verdad ero</w>
p es</w>
acep tar</w>
ver ti
r est
ér amos</w>
jo ven</w>
g in
expli car
cam po</w>
nove la</w>
ent emente</w>
au t
g l
ced er</w>
feli z</w>
monte vide
det al
esi s</w>
o j
res u
m ac
oni o</w>
nú mero</w>
ni e
esp acio</w>
tu vo</w>
dej ó</w>
hombr os</w>
ar ían</w>
bor ra
bus cando</w>
r as
re tor
vol v
ender ez
par tes</w>
dad os</w>
bot ella</w>
in i</w>
cor a</w>
wel l</w>
acab aba</w>
just amente</w>
car a
con ven
amari llo</w>
ace pt
ir ri
gri tos</w>
qui e
do ble</w>
ch u
pens aba</w>
pe li
estab le
li bert
sti co</w>
ex pl
br o
si on
ren unci
graci as</w>
vi sión</w>
montevide o</w>
so li
meti do</w>
noti cias</w>
c í
pa sillo</w>
di entes</w>
tiem pos</w>
f at
desp acio</w>
pu ro</w>
cam is
pun ta</w>
pen a</w>
esi ón</w>
z ado</w>
mucha cho</w>
el l
sal e</w>
ar é</w>
mucha chos</w>
ray uela</w>
lleg ado</w>
g ü
reloj </w>
0 0</w>
in s
encu entro</w>
í da</w>
decir lo</w>
sain t</w>
au </w>
cu esti
vio leta</w>
ten ían</w>
a pli
es con
cl ase</w>
bol sillo</w>
din ero</w>
r inc
rinc ón</w>
figu ra</w>
esper anzas</w>
l una</w>
ex ist
dis co</w>
ning ún</w>
r os
pres ente</w>
pes ar</w>
ch or
pod r
ten i
sim pl
se par
fi ca</w>
pi ol
ent re
a la</w>
t esis</w>
veci nos</w>
pro te
r aro</w>
hab i
in ten
o día</w>
p er</w>
con den
ocur re</w>
pant al
ba i
o fi
par i
yer ba</w>
er da</w>
cas os</w>
ki b
kib but
kibbut z</w>
sim ca</w>
in clin
sorpr esa</w>
vag amente</w>
ac aba</w>
hac en</w>
ch </w>
cor r
pas aba</w>
val e</w>
t h
gi o</w>
igu al</w>
vid ri
mez cl
e ar</w>
verdad era</w>
descu br
ó ni
po cos</w>
in clu
pien so</w>
j or
re cu
re fle
so f
am ar
pu si
quer er</w>
azu l</w>
sin tió</w>
en día</w>
posi bi
si ento</w>
h ag
apl as
or ej
ro di
tre in
im presión</w>
mom entos</w>
equi vo
pien sa</w>
estu di
mo j
ár bol
árbol es</w>
acab ó</w>
cor t
cu ello</w>
cal les</w>
re cuerdo</w>
estr ellas</w>
ent end
g er
esfuer zo</w>
much as</w>
pl at
necesi dad</w>
pareci do</w>
o d
cin cuenta</w>
li bre</w>
pier nas</w>
jard ín</w>
llev ar</w>
li gi
sent ado</w>
ter n
mi li
ó ri
f ac
ur as</w>
habl ó</w>
pe z</w>
habl aba</w>
bri ll
v in
com er</w>
conci li
ú nica</w>
cont empl
m ío</w>
i t</w>
d arse</w>
trein ta</w>
maravi ll
cu ya</w>
blan ca</w>
im os</w>
cul pa</w>
an es</w>
m ino</w>
l ad
enfer mera</w>
ove jero</w>
rol and</w>
ar d</w>
po st
sost en
li m
cuesti ón</w>
di simu
don os</w>
re ch
qu em
cor azón</w>
des esper
si to</w>
nuestr o</w>
sin ti
vol ver
ca e</w>
or gan
o ía</w>
ig nor
dibu jo</w>
much os</w>
em i
se x
mu s
mu ñ
abi erta</w>
lar ga</w>
is mo</w>
d os
no más</w>
có mo
inte lig
pod és</w>
bo l</w>
o ído</w>
g en</w>
reg al
sist ema</w>
l mente</w>
jue gos</w>
dem os</w>
compr end
ec e</w>
mis mos</w>
m bre</w>
baj ar</w>
sigui ente</w>
her m
an cias</w>
pr ue
lle ga</w>
si tio</w>
pal an
mi erda</w>
pat as</w>
fer ino</w>
tér mino</w>
esper ar</w>
brus camente</w>
val enti
valenti n</w>
o di
pied ra</w>
lám para</w>
gal erías</w>
sem ej
p é
gust aba</w>
dor mido</w>
re mos</w>
po cas</w>
o pe
gen es</w>
conci encia</w>
o br
ci to</w>
e vid
si dad</w>
al f
v ir
vi </w>
carr era</w>
bi endo</w>
no ches</w>
libert ad</w>
arr astr
escrib ir</w>
ho y</w>
am pa</w>
pre ten
ch o
po lí
in evi
de fini
c al</w>
s an</w>
absolu to</w>
me ta
ex peri
le j
preci samente</w>
pl ano</w>
am an
az ar</w>
ah og
parec en</w>
expli car</w>
d ri
jun tos</w>
an unci
si ente</w>
sal ía</w>
tu al</w>
adel ant
american o</w>
ob serv
fr es
nue ve</w>
fec to</w>
sac ó</w>
tr adu
especi es</w>
gran de</w>
ri sa</w>
cur so</w>
gri s</w>
ar án</w>
sue ños</w>
am bi
administr ador</w>
bus car
pla za</w>
est ábamos</w>
repi tió</w>
le e</w>
ó r
ca ja</w>
sig no</w>
vi vo</w>
pe lu
oí r</w>
f abri
des e
mi st
ti cos</w>
el em
asom br
f ant
é tico</w>
dom in
ce b
ni ños</w>
t aban</w>
ca p
meta físi
b añ
pres encia</w>
expli cación</w>
ser vi
s áb
pu ra</w>
cu los</w>
in mó
za pato</w>
ci dente</w>
su d
in si
dici endo</w>
apl au
à </w>
fras es</w>
ve o</w>
l in
no ta</w>
co lo
oni a</w>
con mi
conmi go</w>
ca silla</w>
u si
situ ación</w>
e ta
clav os</w>
i or</w>
pi sta</w>
mar co</w>
ce ferino</w>
ho well</w>
est aría</w>
man eras</w>
fuer zas</w>
beb er</w>
ándo me</w>
in gr
horri ble</w>
inf ancia</w>
peg ado</w>
cer ve
se lo</w>
inter min
le yendo</w>
verdad eramente</w>
co inci
des cri
lengu a</w>
é tica</w>
r á
sal vo</w>
ac a</w>
su je
s k
es ía</w>
pregun ta</w>
abri ó</w>
sal to</w>
a parte</w>
aj a</w>
ci fr
esti lo</w>
simpl emente</w>
tir ar</w>
z aba</w>
im per
di dos</w>
or ía</w>
con vers
en co
in es</w>
cre ía</w>
costum bre</w>
e u
gu y</w>
vi ento</w>
ped azos</w>
menci on
su ce
deber ía</w>
mé dico</w>
g n
fu eron</w>
fu erte</w>
i dos</w>
natur almente</w>
pu r
hor r
sac ar</w>
dist ancia</w>
o te
chi cos</w>
dire ctor</w>
ori ta</w>
nue va</w>
pas os</w>
noti cia</w>
en car
enfer mos</w>
col orado</w>
ag entes</w>
pe pa</w>
i l</w>
vi endo</w>
g re
en se</w>
cabal lo</w>
d í
ano che</w>
ll o
cu ch
llor ando</w>
um br
g er</w>
dis cos</w>
an da</w>
rest aur
mag o</w>
cerve za</w>
vuel tas</w>
di al
ata que</w>
pu ertas</w>
an si
ord en
gi a</w>
p le</w>
inst ant
instant án
ter cer</w>
tr u
argent ina</w>
e cu
sol dado</w>
e la</w>
mu estr
lleg aba</w>
n er
hú me
e zas</w>
des pi
oper ación</w>
pre ocup
aman ecer</w>
diálo go</w>
cu yos</w>
difer entes</w>
f ro
ex ig
mo n</w>
endi endo</w>
escuch ar</w>
on ce</w>
rodi llas</w>
c eso</w>
circun st
gu en</w>
pr á
pa v
ma estr
co cina</w>
c res
r am
mir ada</w>
desper tar</w>
b on
i ción</w>
arti sta</w>
ex tr
di r</w>
z os</w>
est é</w>
mi te</w>
gust aría</w>
con sul
clochar de</w>
je an
jean ne</w>
sand ra</w>
vent ani
cin e</w>
fi l
t ores</w>
z ona</w>
entr aba</w>
br ar</w>
ti dad</w>
enc ant
c ados</w>
at enci
pl ant
c é</w>
est ó
estó mago</w>
bi a</w>
gu a</w>
ca ída</w>
tra vés</w>
llam aba</w>
bu l
expl or
sigui ó</w>
ori as</w>
pod ían</w>
ci encia</w>
co la</w>
in capaz</w>
fu tur
cuán do</w>
a conse
fr ía</w>
prim eras</w>
a tra
fl ores</w>
n ar
inmó vil</w>
c aciones</w>
comple to</w>
f ar
parec ían</w>
vo dk
vodk a</w>
om as</w>
as co</w>
mem oria</w>
ver so</w>
ir re
po demos</w>
b la</w>
é poca</w>
cá mara</w>
gu erra</w>
c ero</w>
k e</w>
oy ó</w>
ocurri do</w>
men s
sir ve</w>
car se</w>
radi o</w>
tend r
hi jos</w>
person as</w>
stru cciones</w>
t ad</w>
visi ble</w>
ser io</w>
mu cha</w>
as un
gu tu
gutu s
gutus so</w>
tex to</w>
mar ini</w>
cali ente</w>
pa pe
ag ach
agu as</w>
encontr ado</w>
f é
o la</w>
am or
su pi
ísi ma</w>
sab ido</w>
absolu tamente</w>
sa cu
mo h
cuer dos</w>
señ oras</w>
preci pi
ma tr
ro ja</w>
ac ar
pon iendo</w>
con tra
d é</w>
c ta</w>
í ri
vi gi
feli cidad</w>
ad mi
y e</w>
e ur
inclu so</w>
pro t
ac ciones</w>
reí rse</w>
espe ct
ent al</w>
cuad ro</w>
escuch aba</w>
experi encia</w>
resu el
vi eron</w>
con fun
con f
m ía</w>
crist al</w>
an gu
esper aba</w>
ini ci
ad entro</w>
hombr o</w>
z ó</w>
satis fe
l ab
tranqui lo</w>
dul ce</w>
d an
r ue
comple tamente</w>
to car</w>
sil los</w>
ag i
h emos</w>
sonri sa</w>
amon ton
agu jero</w>
gi ca</w>
v arios</w>
ar emos</w>
pu di
peque ño</w>
j e</w>
diver tido</w>
mi ca</w>
di fi
enfer mo</w>
ari dad</w>
em e</w>
hac erle</w>
prue ba</w>
cu anto</w>
cé l
pi dió</w>
g an</w>
per don
si ete</w>
sab en</w>
pr ó
at orio</w>
2 0
l ac
1 8</w>
ir ene</w>
p ablo</w>
f lo
l on
pe lí
ni mo</w>
ab as</w>
qu es</w>
di </w>
ilu min
b reci
vu l
án donos</w>
aprove ch
po eta</w>
z ando</w>
m ento</w>
su fici
z ar
gi do</w>
z co</w>
restaur ante</w>
matr im
organ iz
atenci ón</w>
fu ri
e pi
ho ja</w>
pl á
mi endo</w>
i d
ment al</w>
tab aco</w>
t esti
su pongo</w>
no ción</w>
hi pó
contr ario</w>
s ar
compr ar</w>
rá pi
hac erse</w>
c esi
bu enas</w>
m an</w>
g as
im posible</w>
ru ido</w>
ser i
pin tura</w>
cul ar</w>
preci o</w>
in expli
éndo le</w>
camin ar</w>
en za</w>
et cé
etcé tera</w>
hab r
g ado</w>
p aci
ten emos</w>
v end
pi be</w>
imagin ar</w>
es pañ
es co
g ía</w>
person a</w>
co pa</w>
senti miento</w>
cas ti
si ble</w>
c adi
em o
tr a</w>
pro vo
sens ación</w>
pág ina</w>
nor te</w>
im pul
esc án
escán dal
so ga</w>
cui dado</w>
ent endi
am en
asun to</w>
co lum
anim ales</w>
at amente</w>
corpor ación</w>
son ia</w>
s é
pape les</w>
pa u
j ar
lo cos</w>
e da</w>
h un
ju gar</w>
ped azo</w>
fi l</w>
re uni
and aba</w>
mi ll
b el
ocurr ir</w>
en da</w>
lá pi
acer có</w>
impor tante</w>
plac er</w>
ber t</w>
ec ía</w>
cie dad</w>
de pen
fant as
tar a</w>
fran cos</w>
á li
probl emas</w>
confi anza</w>
ti pos</w>
peli gr
ár bol</w>
li do</w>
agu ant
vi s
pon erse</w>
p an
ti vamente</w>
at </w>
futur o</w>
aconse j
ante ojos</w>
br u
so pa</w>
án g
com par
in v
af ir
u ñas</w>
pro gr
c es
in men
el es</w>
inexpli cab
fu ese</w>
ju sti
o mo</w>
tem a</w>
d ura</w>
vol u
cal l
entr ó</w>
tur as</w>
ent reg
cer ti
qued ado</w>
llev aba</w>
com ún</w>
ti ro</w>
insi sti
parti r</w>
c ándose</w>
in form
t er</w>
fu i</w>
ba il
ab o
propi a</w>
li to</w>
e tas</w>
ver lo</w>
f est
meti ó</w>
mir ándolo</w>
medi da</w>
farm acia</w>
pu bli
r atos</w>
señ orita</w>
ar ena</w>
consi der
co ñ
coñ ac</w>
met er</w>
cin as</w>
re fer
es pir
pro yec
llam an</w>
gu r
al eza</w>
medi odía</w>
escri to</w>
emple ados</w>
cres po</w>
quin ta</w>
mon jas</w>
bo u
er n
te cho</w>
b es</w>
cor d
por te</w>
z on
im á
imá genes</w>
ob st
pó sito</w>
li qui
em pi
cigarri llos</w>
sil b
ton o</w>
dar me</w>
h ago</w>
az ú
azú car</w>
ru gada</w>
at u
e ti
bas taba</w>
pas ando</w>
tre gua</w>
nom bres</w>
m eses</w>
ac or
sent arse</w>
ide as</w>
cu ro</w>
estu pe
ol vid
ti di
vi vía</w>
pedi r
franc és</w>
i to</w>
bal d
o ca
di arios</w>
matrim onio</w>
g entes</w>
mu er
fr ag
d olor</w>
vidri o</w>
dej an</w>
últi mas</w>
ve la</w>
mon dri
qued ar</w>
ri ta</w>
contest ó</w>
su i
der se</w>
jo h
n á
du mbre</w>
pal oma</w>
ri t
cer em
cerr ando</w>
b as</w>
ad es</w>
sac ando</w>
minu to</w>
pad res</w>
s enci
m y</w>
of reci
cu bi
hormi gas</w>
e bre</w>
ar los</w>
á rez</w>
fal so</w>
meter se</w>
mari do</w>
mar cha</w>
ar tí
escándal o</w>
pantal ón</w>
du er
gr ave</w>
l em
ci ertas</w>
í fi
pue da</w>
in strucciones</w>
m eros</w>
ti l</w>
pel d
re ía</w>
tu bo</w>
dis tra
pal ma</w>
an to
pregun tas</w>
f a</w>
re cuerdos</w>
ari ta</w>
gi g
c adamente</w>
encu entra</w>
pedi r</w>
tir ó</w>
empez aban</w>
u so</w>
estúpi do</w>
cr í
res is
con di
r é
sali do</w>
hab íamos</w>
sem anas</w>
can to</w>
no st
tor no</w>
par a
a preci
indi vi
indivi du
o v
bat alla</w>
h é
em bo
com pli
detal les</w>
agrad able</w>
en oj
extra ñ
c aban</w>
y as</w>
enti endo</w>
pu ta</w>
señ al
posibi lidad</w>
er la</w>
terr eno</w>
ti camente</w>
res puesta</w>
fr u
c adas</w>
i lla</w>
rue da</w>
contr adi
ta pi
hue le</w>
e ando</w>
ci er
señ a</w>
de par
perfec to</w>
habit ación</w>
j ur
mo dos</w>
pa tri
mal di
be bi
tr ago</w>
llor aba</w>
fum ando</w>
v el</w>
cambi ar</w>
hi los</w>
in e
re mo
i d</w>
v ali
ir lo</w>
sent irse</w>
su av
suav emente</w>
tr en</w>
enco gi
ti tu
b año</w>
c em
ac tos</w>
en emi
levant ó</w>
li o</w>
ex tran
al e</w>
conoci do</w>
fósfor os</w>
encontr ó</w>
al ta</w>
ent usi
entusi as
endi da</w>
algun o</w>
des cans
hubi eran</w>
ci r</w>
llev ó</w>
az as</w>
tar ea</w>
convers ación</w>
re medio</w>
natur aleza</w>
fl ori
n ene</w>
tar me</w>
so ciedad</w>
ech ó</w>
inmedi atamente</w>
est am
teni ente</w>
secre t
viej os</w>
r ón</w>
ba sura</w>
arr ol
le y
car as</w>
peque ña</w>
ar as</w>
s ar</w>
bor r
ad ora</w>
po breci
mu ertos</w>
ta za</w>
os cur
fósfor o</w>
to ca</w>
mol est
mad rugada</w>
do bl
rel ación</w>
esp íri
espíri tu</w>
def en
ni o</w>
verti gin
tant os</w>
tu viera</w>
movi mientos</w>
f acción</w>
enc endió</w>
ol ó
argent ino</w>
cómo da</w>
ti smo</w>
intelig encia</w>
po esía</w>
in sin
cre és</w>
caf és</w>
g aba</w>
f ur
par edes</w>
par se</w>
dej ando</w>
acab ar</w>
d am
cer se</w>
muñ e
mat ar</w>
cor re</w>
ber to</w>
res ol
fu me</w>
á for
mon stru
ri do</w>
mondri an</w>
b en
camis a</w>
go tas</w>
os curo</w>
g et
extraordin ario</w>
ta p
ent or
perfec ta</w>
h as</w>
tir ando</w>
man cha</w>
regi str
au di
con vi
dic en</w>
entr ada</w>
trist eza</w>
mir arlo</w>
u ti
and á</w>
ac aso</w>
gor do</w>
difi cul
fi ebre</w>
vi sto
ri to</w>
p ción</w>
re present
estr u
empez aron</w>
estable ci
pu estos</w>
con stitu
cr é
pu gn
sombr ero</w>
ó mi
bol sillos</w>
dire cción</w>
mu lti
ari as</w>
descu bri
oy e</w>
ro pero</w>
en sa
caj ón</w>
car tas</w>
cél esti
célesti n</w>
cent í
eta pa</w>
sud americano</w>
20 3</w>
a i</w>
er ro</w>
vi das</w>
at as</w>
sab iendo</w>
co che</w>
des en
un cia</w>
en vi
gol pes</w>
cerr ar</w>
hu m
confu sión</w>
al moh
especi al</w>
ter ía</w>
t ándose</w>
t ú
ed as</w>
t al
p ár
in quie
alf om
mi dad</w>
su dor</w>
tan o</w>
as os</w>
des orden</w>
s ci
que ta</w>
ísi mos</w>
pl eno</w>
ol ía</w>
vac ío</w>
k e
dej ado</w>
di lla</w>
con segu
renunci ar</w>
p eso</w>
ej er
li e
quin ce</w>
inevi table</w>
ac es</w>
ab ul
ven ido</w>
cu esta</w>
muestr a</w>
tom ando</w>
ar ro
explicar le</w>
in sul
curi oso</w>
g au
a ver
cum pl
bal an
pu estas</w>
sobr es
ayu da</w>
hac erlo</w>
cal es</w>
le ído</w>
pas ta</w>
met áfor
ent endido</w>
depar tam
9 </w>
no tas</w>
lu jo</w>
plan ta</w>
gr ab
cont acto</w>
sub e</w>
orej as</w>
tr om
gust ado</w>
lect ura</w>
t ín</w>
mo verse</w>
vac ía</w>
alcanz ó</w>
circunst ancias</w>
s w
in sist
mir aban</w>
deci dido</w>
de le
ch am
be au
re fu
sab i
an ta</w>
to mar
líne as</w>
le y</w>
dur o</w>
tan cia</w>
ad or
vi eran</w>
b om
dec ís</w>
murmur ó</w>
du erme</w>
sac a</w>
dig amos</w>
avan ce</w>
gru pos</w>
com er
éri cas</w>
pi co</w>
pu do</w>
d aban</w>
vol un
re pugn
tom ó</w>
f am
ver gü
vergü enza</w>
lí mite</w>
fi car</w>
j et
ori os</w>
pu erto</w>
llam ar</w>
ex pedi
gal ería</w>
d ama</w>
m esi
mesi ta</w>
guar dia</w>
ru lem
li cas</w>
p ampa</w>
auto pista</w>
g ago</w>
si lu
l ú
nuestr os</w>
hue co</w>
hac ían</w>
ca yó</w>
em pap
abr az
pelí cula</w>
pens ado</w>
tu ve</w>
repe ti
graf ía</w>
can adi
canadi ense</w>
habl amos</w>
l ante</w>
minu ci
b amos</w>
b é
can tidad</w>
plu mas</w>
ex cep
fi cio</w>
su st
cu yo</w>
lápi z</w>
rabi a</w>
trat aba</w>
hi ce</w>
ir la</w>
pl ante
es can
pi dez</w>
ch ado</w>
j az
fal sa</w>
tri bu
nost al
án gu
o i
val ores</w>
un es</w>
bol sa</w>
á ci
sospe cha</w>
ejer ci
hist óri
car ajo</w>
val or</w>
ci s
pas ajes</w>
mej ores</w>
pla ta</w>
z agu
ton to</w>
fun cion
pe le
ar re
qui do</w>
r aso</w>
profun damente</w>
evi tar</w>
bi bli
le c
li dades</w>
mir an</w>
qu ini
anim al</w>
s ín
h aría</w>
fij ate</w>
desnu do</w>
y u
ç a</w>
vo us</w>
ay er</w>
mir e</w>
c k</w>
qu í
pas aban</w>
certi dumbre</w>
cont ando</w>
cier re</w>
w hi
herm oso</w>
tir se</w>
ex am
ó nico</w>
fo to</w>
mas a</w>
prá cti
vol verse</w>
t antes</w>
ant </w>
pro pio</w>
ner vi
m enta</w>
habl ado</w>
am ablemente</w>
w it
fami li
pied ras</w>
impor tancia</w>
cul p
pañ uelo</w>
re vés</w>
con sol
resul ta</w>
ti ra</w>
pas an</w>
horr or</w>
to ma</w>
ab re</w>
r oma</w>
revi sta</w>
muñe ca</w>
a fi
e fecto</w>
prof es
di eron</w>
ú ne
cab all
lu ces</w>
tele fon
ná u
parec ería</w>
terr or</w>
b arr
ca pi
baj ó</w>
des embar
ci en</w>
sem ana</w>
colum na</w>
dur miendo</w>
fá ci
ar mon
p esos</w>
her mana</w>
go bi
rulem anes</w>
ro us
fr az
ki ló
cam pes
li x</w>
l ando</w>
or gu
mor ir</w>
ver eda</w>
bar co</w>
termin ado</w>
má quina</w>
mi les</w>
supi era</w>
a co
her mos
t adas</w>
cul tura</w>
re un
ad o
mont ón</w>
at ac
convenci do</w>
con stru
cuán tas</w>
encontr aba</w>
obje to</w>
fr en
igu almente</w>
g all
pe in
sab erlo</w>
diver sos</w>
mist eri
ex as
trabaj ar</w>
tar ía</w>
pue b
estúpi da</w>
impor taba</w>
dor mir
mu l
f recu
t éc
in to</w>
fi cación</w>
ab str
vo ces</w>
lu cha</w>
lam ent
insin u
san to</w>
to caba</w>
parti da</w>
des cen
corr er</w>
li co</w>
cono zco</w>
esper á</w>
pregun tar</w>
fi o</w>
m entos</w>
ti za</w>
vent anas</w>
pe ti
re gr
nue vos</w>
ex al
deli ci
mir ándola</w>
cal cul
per fume</w>
mez c
tien da</w>
conse cu
u t</w>
vi ve</w>
xi mo</w>
alcan ce</w>
ll ano</w>
corri endo</w>
pal omas</w>
son e
imagin ación</w>
t y</w>
di ga</w>
fu eran</w>
estr ope
sent í</w>
re d</w>
aci to</w>
ac cidente</w>
pens amiento</w>
re tro
dic cion
lle va</w>
re vel
ab un
es co</w>
ag e</w>
in diferente</w>
man as</w>
esi a</w>
segu ri
ri g
per der</w>
b ar</w>
pu se</w>
volv í</w>
res ist
f era</w>
t ej
re al</w>
ber g</w>
per mit
im pres
cion ado</w>
per fum
figu ras</w>
t ón</w>
añ as</w>
pe ores</w>
am e
ocurri ó</w>
au tor</w>
su árez</w>
re ino</w>
ve get
escrib e</w>
rum bo</w>
pa tr
j ó
escri tura</w>
qui enes</w>
b ord
so bra</w>
an u
inexplicab le</w>
tranqui la</w>
vi aje</w>
of re
enc end
d ores</w>
pregun to</w>
habi tu
o port
her mo
salu d</w>
cur sos</w>
char la</w>
co her
pi a</w>
col onia</w>
m ali
end en</w>
min ist
ced ía</w>
b in
resul tados</w>
hi d
ob s
ventani lla</w>
presi dente</w>
termin ar</w>
lar es</w>
fu ente</w>
k í</w>
palan ganas</w>
pi sto
ne ur
habit antes</w>
respe cti
mar cial</w>
mi cha
micha el</w>
fé lix</w>
cre pú
crepú s
li l</w>
cru zar</w>
negr as</w>
d s</w>
a ún</w>
gu é</w>
aqu ello</w>
ano ch
ham bre</w>
mis mas</w>
su fr
fir ma</w>
meti da</w>
sil las</w>
g én
ir á</w>
per d
bo la</w>
as quer
pe los</w>
um bra</w>
sinti endo</w>
le o</w>
sac o</w>
clav o</w>
des lum
su cio</w>
qu inas</w>
levant arse</w>
í r
oy endo</w>
enor m
si endo</w>
ej a</w>
medi as</w>
trans par
intermin able</w>
abr irse</w>
exas per
col or
ge o
ángu lo</w>
con cre
tranqui liz
domin go</w>
bo har
pier na</w>
val ía</w>
so le
tr e</w>
es ar</w>
vivi do</w>
e v
f aci
arreg l
pun tos</w>
g estos</w>
an amente</w>
para í
re y</w>
hé ro
g ab
refle xi
cuad ros</w>
port era</w>
mo d
cono cía</w>
pas e
ab on
ver sos</w>
f au
f ati
escri torio</w>
compr ensi
angu sti
repe tir</w>
p ti
os cura</w>
re clam
ci erta</w>
so los</w>
inte lec
sim ple</w>
entr an</w>
jug ando</w>
nar an
ab ur
cri sis</w>
si vamente</w>
trat ando</w>
pied rita</w>
ter i
sombr as</w>
cep ti
l era</w>
cerr ado</w>
cad ena</w>
borra cho</w>
h al
pusi eron</w>
ni ña</w>
her r
ni llo</w>
seguri dad</w>
um en</w>
as es
pa í
paí ses</w>
ti gre</w>
mos ca</w>
ofi cina</w>
a com
her e</w>
ter o</w>
qued an</w>
ro se</w>
abi erto</w>
p ado</w>
hor iz
horiz on
h in
concili ación</w>
un cio</w>
extra ño</w>
gan ta</w>
veget ales</w>
e zo</w>
respe to</w>
am bul
de clar
ce de</w>
patr ón</w>
mu si
estru ct
tor tu
volun tad</w>
vel le</w>
esc en
abri go</w>
o ch
sum amente</w>
pas ara</w>
gal le</w>
hermo sura</w>
z um
di re</w>
hu mani
humani dad</w>
extr em
ar mas</w>
p si
ci ent
in tent
cam pos</w>
pul s
sir vi
as pe
b os
mali g
pág inas</w>
piol ín</w>
b ú
err or</w>
mens aje</w>
é u
a i
cem ent
dor mit
pas aj
ac al</w>
mont acar
montacar gas</w>
gobi erno</w>
mol é
di al</w>
ig n
her manos</w>
gen éricas</w>
ir ma</w>
rous se</w>
pes cadi
silu eta</w>
t s</w>
de ten
nuestr as</w>
ci da</w>
tar je
at ar
much ísimo</w>
aqu ella</w>
par que</w>
qui </w>
en amor
mí nimo</w>
l é
esp anto
ve las</w>
ag o
del ant
pregun taba</w>
and u
í bamos</w>
cu las</w>
almoh ada</w>
in o
eci do</w>
obst in
quin to</w>
pro pósito</w>
ocur ría</w>
f en
á l
è re</w>
vein ti
am o</w>
é ste</w>
sal tar</w>
cuad r
deslum br
pu de</w>
s al</w>
ti endo</w>
estu pidez</w>
cant aba</w>
sac aba</w>
er go</w>
óni camente</w>
ilu siones</w>
elem entos</w>
mus los</w>
li ber
acord aba</w>
di ablo</w>
dul c
m en</w>
escuch ando</w>
bohar dilla</w>
acer ca</w>
fir m
quer iendo</w>
éri ca</w>
signi fi
de fin
ci vi
por te
mo der
evid ente</w>
du da</w>
dal e</w>
ne gar</w>
f abul
cono cer</w>
h em
pa j
ándo los</w>
g on
ver la</w>
re mon
ban co</w>
res ent
ori ent
gi da</w>
pe ces</w>
mezc la</w>
ter mó
termó metro</w>
ver bo</w>
descubr ir</w>
é sta</w>
hab lo</w>
x im
ej empl
termin a</w>
ami st
respir ación</w>
di das</w>
ag ar
per dida</w>
sus ci
im paci
ex ci
últi mos</w>
con for
hipó tesis</w>
en vuelto</w>
empez ando</w>
conden ado</w>
me d
aj ust
esc ena</w>
po bres</w>
um </w>
á si
deci dió</w>
au tom
ac k</w>
ti z
i tali
enc ender</w>
car n
fu mar</w>
es ca</w>
sen sible</w>
alcan zar</w>
cl asi
e br
re ac
u bi
centr al</w>
f an
co u
con centr
es pon
pari entes</w>
ór den
órden es</w>
tele gr
reci én</w>
es po
se co</w>
su pli
v ay
to có</w>
amar go</w>
habl an</w>
co do</w>
án e
su r</w>
a ve
gar ganta</w>
ju z
ambul ancia</w>
jor nada</w>
viaj ante</w>
corri ente</w>
l ada</w>
st os</w>
jó ven
jóven es</w>
jo der</w>
in tu
per fil</w>
hici era</w>
cu ales</w>
tar lo</w>
profes or</w>
am able</w>
och enta</w>
agreg ó</w>
ni cos</w>
qued ara</w>
preci so</w>
p escu
ros tro</w>
as a</w>
ad galle</w>
l as
ver ano</w>
ing l
espir i
expli có</w>
coment arios</w>
ati vo</w>
in diferencia</w>
m ado</w>
con qui
te atro</w>
su ceder</w>
can san
in qui
al da</w>
t ú</w>
aspe cto</w>
prim eros</w>
des c
cuer da</w>
cement erio</w>
centí metros</w>
s ano</w>
signi fica</w>
tar on</w>
minist erio</w>
ci ertos</w>
estam pi
ll enos</w>
vigi lia</w>
cara velle</w>
anci ana</w>
boni fa
bonifa z</w>
ki kí</w>
mar g
distin gu
car me</w>
ca su
fri tas</w>
de cer</w>
nu bes</w>
no ble</w>
gri to</w>
recono cer</w>
qu </w>
jue ves</w>
amari lla</w>
l enta</w>
lu ci
al am
ir me</w>
estu ve</w>
vivi endo</w>
ment ira</w>
anoch ecer</w>
ale gre</w>
pá j
páj aro</w>
bi ci
bici cle
medi anoche</w>
é sa</w>
l au
sal en</w>
cau sa</w>
o gr
p í
empe cé</w>
o sidad</w>
alfom bra</w>
pen umbra</w>
car caj
pa ta</w>
azu les</w>
segu ra</w>
es pu
est atu
cari cia</w>
e ter
ni dad</w>
baj ando</w>
di cos</w>
fav or
tir ado</w>
ten día</w>
su peri
alg od
cost aba</w>
dial éc
dialéc tica</w>
ju i
n es</w>
pre tend
dulc emente</w>
me tr
preten de</w>
nostal gia</w>
fi la</w>
mi da</w>
te to</w>
avi ón</w>
comi sion
su ma</w>
ali sta</w>
má s
an áli
análi sis</w>
super fici
hab erse</w>
ex cel
á tica</w>
sufici ente</w>
eng añ
aut ori
avan zar</w>
quer ida</w>
ami gas</w>
chi cas</w>
cuán to</w>
zagu án</w>
mar gen</w>
mor al</w>
por quería</w>
go fio</w>
y era</w>
des confi
apre tó</w>
tel es</w>
alcanz aba</w>
cu chi
con st
visi ta</w>
vag a</w>
te oría</w>
b au
ro berto</w>
sobres al
piol ines</w>
ab sor
lu char</w>
viej as</w>
mari po
ami entos</w>
naran ja</w>
j a
t ían</w>
ex clu
contradi ct
person al</w>
re llano</w>
su bió</w>
hac emos</w>
l l</w>
in so
o ci
v ani
respir ar</w>
ver as</w>
pap á</w>
rom per</w>
pag ar</w>
ce bi
llam ado</w>
ven ían</w>
cant ar</w>
n ó
resbal ando</w>
on ales</w>
le za</w>
orej a</w>
z ca</w>
g ó</w>
ti n</w>
a hor
v í
del ir
cl ási
ali vi
tor nillo</w>
whi sk
sac ado</w>
secre to</w>
aplau sos</w>
joh n
af loj
lie u</w>
j ell
jell y</w>
rol l</w>
me cá
ci smo</w>
om in
po se
acom o
tra i
e lo</w>
cor ría</w>
t ades</w>
ven í</w>
su stitu
raz on
decir te</w>
t almente</w>
d ada</w>
in fer
a pur
lu c
se as</w>
có modo</w>
alcan za</w>
insisti ó</w>
ir le</w>
dej ame</w>
inten ción</w>
dé bi
ti vos</w>
compr ende</w>
impul so</w>
des con
tr á
escri tor</w>
ca ían</w>
gu ard
pres enta</w>
in yec
ilu str
vesti do</w>
may oría</w>
gau lo
i se</w>
cre ación</w>
acti vi
esper ado</w>
ins pir
des car
cesi vamente</w>
atr i
baj aba</w>
ar ma</w>
llev ando</w>
pi sos</w>
di ente</w>
de di
sáb anas</w>
estu vo</w>
z i
ri dí
maestr o</w>
man dó</w>
qui eras</w>
hu mana</w>
extrem o</w>
r aj
re ce
st e
pod rá</w>
gri tó</w>
cansan cio</w>
qui so</w>
nie ve</w>
ll anto</w>
bú s
bús queda</w>
pas tillas</w>
hi gi
t emp
oport unidad</w>
en frente</w>
for z
dormit orio</w>
ló pez</w>
cerr ó</w>
r ara</w>
ve lo
izquier do</w>
vuel vo</w>
nú meros</w>
z odi
zodi acal</w>
pens é</w>
1 0</w>
registr o</w>
obr eros</w>
b eso</w>
si guen</w>
inter ior</w>
kiló metros</w>
ari ane</w>
marg arita</w>
crepús culo</w>
vini endo</w>
ins cri
fin a</w>
dur as</w>
par aguas</w>
aqu el</w>
str of
te la</w>
dig n
l le</w>
so pl
ar aña</w>
perfec ción</w>
rech az
tembl ando</w>
f em
continu o</w>
ag a</w>
acost umbr
in corpor
mon edas</w>
es car
deli cia</w>
segu r
segur amente</w>
par ale
cono ce</w>
sub ía</w>
v asos</w>
e go
li mon
limon ada</w>
f es</w>
cont estar</w>
escan d
ele cción</w>
condu cta</w>
sci ente</w>
enorm emente</w>
jaz z</w>
infini ta</w>
dis tribu
profun do</w>
lo cura</w>
ad oras</w>
est ético</w>
ati vamente</w>
in er
ex presión</w>
ilu sión</w>
tr am
cole cti
sole dad</w>
aliz ación</w>
ad ol
fi el</w>
ver sa</w>
olvi do</w>
la i
asi sti
á culo</w>
co tidi
prob ar</w>
or s</w>
tab lemente</w>
za pa
e lig
parti cul
e fic
po ema</w>
sig nos</w>
entend és</w>
re don
t en</w>
ad ver
cifr as</w>
ed or</w>
oca sión</w>
mon os</w>
al mac
in sen
insen sa
ab ría</w>
bi erto</w>
and aban</w>
enfer ma</w>
ro jas</w>
inter rum
pr ol
ca ía</w>
despi erto</w>
lo gos</w>
vi entre</w>
conoci miento</w>
con seguir</w>
hi lo</w>
hubi ese</w>
infini to</w>
lect ores</w>
t aciones</w>
e ur</w>
contempl ación</w>
mon o</w>
d y</w>
tar des</w>
seri e</w>
fran que
mu cama</w>
com pro
expli caciones</w>
in oc
lo gr
interes ante</w>
s or</w>
o d</w>
departam ento</w>
1 0
húme do</w>
sali endo</w>
amist ad</w>
ele c
ur u
uru gu
be bió</w>
pe ta</w>
ez ca</w>
escal eras</w>
balan ce
aus encia</w>
inmedi ato</w>
k in
ar ru
revi stas</w>
desp acito</w>
có lera</w>
bab y</w>
descen so</w>
s at
p ados</w>
ed u
e ve</w>
deci de</w>
fo tos</w>
sonri endo</w>
cambi ando</w>
con ver
at entamente</w>
retor ci
n ena</w>
her manas</w>
ti j
sig lo</w>
of </w>
polí tica</w>
pon i
me dad</w>
peg ada</w>
gr os
su biendo</w>
a is
u x</w>
mu ri
vari as</w>
soñ ando</w>
d ándole</w>
can ta</w>
sti ca</w>
se u
tr adi
ori gen</w>
en señ
ent ender
paraí so</w>
d ate</w>
og ía</w>
cl ara</w>
ll ar</w>
person ajes</w>
fi ja</w>
princi pios</w>
enemi go</w>
w at
nove las</w>
compr ender
encogi ó</w>
estu vi
maravill osa</w>
ad era</w>
en re
pre ocu
ar ás</w>
bus caba</w>
ne t</w>
do y</w>
re vent
bar b
semej ante</w>
c en</w>
g lo
a pel
ag it
tir arse</w>
cerr ada</w>
comer cio</w>
corri ó</w>
vac aciones</w>
des liz
ru bia</w>
su po</w>
di vi
vini eron</w>
fij amente</w>
escen ario</w>
repugn ante</w>
dos cientos</w>
hag a</w>
co pi
er v
h á
parec er</w>
quier en</w>
pelu ca</w>
imag ino</w>
ex iste</w>
br asi
br oma</w>
su jet
aconsej ó</w>
áng eles</w>
deb en</w>
extraordin aria</w>
sent ándose</w>
cer ro</w>
tent ativa</w>
sab emos</w>
an tro
de dor</w>
cient ífi
consi ste</w>
per ten
se cas</w>
fir me</w>
hue vo</w>
tem por
extran jero</w>
la ta</w>
lad ri
vent u
farm ac
farmac éu
man dados</w>
tabl ones</w>
escu do</w>
pe dido</w>
dest in
tra je</w>
in str
instr um
reci b
levant ar</w>
fec tos</w>
fi estas</w>
he f
repi te</w>
g ados</w>
esp ada</w>
fi las</w>
comision ados</w>
í dem
ídem </w>
eri e</w>
mili tar
militar es</w>
dk w</w>
lu i
lui si</w>
nu bio</w>
escrib as</w>
ced rón</w>
pon t</w>
pa pas</w>
h ir
p aba</w>
sac ri
fer ro
ori lla</w>
cal ent
estu fa</w>
ch an
sospe char</w>
sal tos</w>
k lee</w>
con vul
man ía</w>
car re
inter n
acarici aba</w>
ur re
suspir os</w>
im bé
cuch ara</w>
mont ones</w>
er nos</w>
w i
mostr aba</w>
sost eni
tu ales</w>
tab les</w>
gén ero</w>
tra po</w>
v ían</w>
im peri
en fu
tra ía</w>
silenci os</w>
to l
ar chi
aj as</w>
tra to</w>
mu erta</w>
vag o</w>
testi go</w>
pe lo
r al
dej aría</w>
ansi edad</w>
der ro
ec as</w>
exist encia</w>
i v
levant ándose</w>
al tern
se c
d aría</w>
ren uncia</w>
ir ónicamente</w>
gi cas</w>
es qui
civi liz
due ño</w>
admi tir</w>
rode ado</w>
adol esc
refle jo</w>
in cur
c ían</w>
cre ído</w>
sent im
sex u
car ne</w>
zapa tillas</w>
cig ar
di ab
héro e</w>
reflexi ón</w>
re gu
cion ar</w>
ab or
tu ri
cap aces</w>
g atos</w>
bald osas</w>
acab aban</w>
to c</w>
re ojo</w>
tom aba</w>
in for
idio tas</w>
cí r
habl aban</w>
ll ovi
pol vo</w>
imper me
salu dó</w>
gi endo</w>
ver i
as pir
re la
prol on
b esti
conoci ó</w>
p ó</w>
b aba</w>
mag n
recono cer
su ya</w>
se d</w>
ad ó
c ro
ro man
pon en</w>
lu ch
ami ga</w>
pon ga</w>
mon ó
mej illa</w>
lo u
bi lidad</w>
metáfor a</w>
espect ador</w>
em por
pre fi
xim a</w>
as cen
sent ada</w>
pe do</w>
t all
per derse</w>
apoy ándose</w>
enter r
arreg lar</w>
llen ar</w>
dorm ía</w>
su ena</w>
al las</w>
habl emos</w>
or qu
adi lla</w>
as ado</w>
có m
cóm pli
tom ado</w>
profun da</w>
ag io</w>
gri tar</w>
t ándole</w>
ll ora</w>
sab io</w>
solu ción</w>
cerem oni
ac ceso</w>
ch e
entor n
exam in
cuán tos</w>
plat ea</w>
diccion ario</w>
bu f
asi st
lo go</w>
chor re
i te</w>
t ino</w>
n y</w>
in venci
h er</w>
habl ara</w>
suce dido</w>
ca ñ
pantal ones</w>
do ce</w>
to bi
tu lo</w>
uni ver
ló gica</w>
d ame</w>
llam aban</w>
co me</w>
a w
acept ación</w>
escu pi
cam as</w>
uni vers
peque ños</w>
bi os</w>
b ir
fr on
so s
fu ga</w>
pu re
pure za</w>
ú a</w>
tri un
acep tó</w>
dificul tades</w>
volv ían</w>
ari amente</w>
prob able</w>
tra jo</w>
ta x
cambi a</w>
man ot
qued arme</w>
bo b</w>
ue los</w>
fu imos</w>
ti m
estab as</w>
dij era</w>
rí os</w>
pos ado</w>
al z
ce pi
senti mientos</w>
dis curso</w>
eleg ir</w>
cuer pos</w>
op ini
cambi ado</w>
tr on
ec os</w>
ó nica</w>
pav ana</w>
ali x</w>
ch ale
uti liz
oc cidente</w>
e gi
egi p
segun dos</w>
rápi damente</w>
tortu ga</w>
esper ó</w>
pat ada</w>
lo ca</w>
p al</w>
mi o</w>
pres ur
corre dor</w>
v ómi
diver sas</w>
enti ende</w>
con suelo</w>
ti gio</w>
est ará</w>
conci ertos</w>
gig ant
as tu
nac e</w>
no tar</w>
can ción</w>
sof á</w>
mit é</w>
tra er</w>
vi en
pat adas</w>
ch er</w>
cu ento</w>
sal es</w>
to us</w>
os tr
tem per
temper atura</w>
w in
s es
ses enta</w>
vel orio</w>
pli ca</w>
mat ado</w>
f acto</w>
visi ones</w>
ali dades</w>
cab ezas</w>
so cial</w>
detal le</w>
al ter
ven ga</w>
pier de</w>
m es
deb o</w>
en ne</w>
escri bo</w>
3 1</w>
corri entes</w>
malig na</w>
b ori
deb ían</w>
chi qui
cum pli
ab neg
mel an
li bre
cami ón</w>
her á
herá cli
herácli to</w>
pa is
je fe</w>
o lo</w>
buscar lo</w>
gu sano</w>
ad ecu
dur ar</w>
quí mica</w>
whisk y</w>
t es
in sens
at ez</w>
an uncio</w>
hef t
heft pisto
heftpisto le</w>
pr oli
enci al</w>
ci encias</w>
ra í
c ena</w>
prim os</w>
pregun té</w>
ce fe</w>
lo cales</w>
sone to</w>
oli ta</w>
2 h
2h p</w>
ac el
gal erie</w>
gu ir
guir n
cas o
pescadi tos</w>
peld años</w>
convenci da</w>
ma x</w>
pau sa</w>
atar decer</w>
ji to</w>
cat á
catá strof
re lám
relám pag
eci to</w>
car ri
p ér
mo vía</w>
es tir
oni e</w>
c k
ne u
lle gué</w>
cans ada</w>
le tas</w>
hum or</w>
espe jos</w>
p ab
n as
4 0</w>
ch irri
guar da</w>
llam ada</w>
ali ento</w>
ele gido</w>
pi s
em br
perd ón</w>
ca ído</w>
plat e
par ar</w>
llam ó</w>
au ment
ag az
enfu reci
epi so
pi de</w>
son reír</w>
i llas</w>
llen as</w>
tol er
escand aliz
tra ído</w>
éndo la</w>
men u
defen sa</w>
li vi
car io</w>
es pi
j au
visi tar</w>
pi ca
cans ado</w>
li mi
estr em
cu entas</w>
plá stico</w>
se ca</w>
instantán eo</w>
j er
s ch
1 1
in som
l unes</w>
cuar teto</w>
son ido</w>
f el
dig na</w>
ej ecu
tí os</w>
acti tud</w>
clochar d</w>
re du
f ol
históri co</w>
dej arlo</w>
mu la</w>
le t</w>
feli ces</w>
mili tar</w>
v or
naci dos</w>
expli caba</w>
col mo</w>
negr os</w>
comi da</w>
habl ándole</w>
ar mar</w>
l ío</w>
sigui endo</w>
pe día</w>
z en</w>
fi lo
filo sof
ent ales</w>
mist erio</w>
bl ando</w>
al as</w>
re t
pi ezas</w>
ca ños</w>
cont ado</w>
de vuelve</w>
lu str
l an</w>
le ía</w>
segu ros</w>
cá l
rí e</w>
di éndose</w>
bre ve</w>
l t
par do</w>
absur da</w>
imperme able</w>
invent ar</w>
f et
sir ven</w>
cl ama</w>
di pl
si e</w>
d ándose</w>
bo tel
botel las</w>
an ac
cre ce</w>
gar es</w>
suspir ó</w>
e aba</w>
con cep
t oria</w>
pon ían</w>
ca za</w>
ori llas</w>
mel odía</w>
coinci dencia</w>
br once</w>
bus có</w>
tra pos</w>
alej arse</w>
des tru
herm osa</w>
ech ando</w>
naci onales</w>
instal ado</w>
llu eve</w>
ni vel</w>
cor tes</w>
cuchi llo</w>
lig eramente</w>
do cum
g ación</w>
mu dar</w>
pav adas</w>
as es</w>
deci me</w>
senci llo</w>
i i</w>
adi vin
i f</w>
vol umen</w>
entr ado</w>
agarr ó</w>
1 2
cap í
gir ar</w>
u re
at mó
atmó s
atmós fera</w>
fu l</w>
mus lo</w>
po emas</w>
am our</w>
refu gi
enderez ó</w>
medi os</w>
us ar</w>
gi camente</w>
a k
mur mu
m eri
ant eri
univers al</w>
cer ebr
av ent
ca pri
trans mi
olvi dado</w>
al bert</w>
a pun
triun f
colg ando</w>
m esas</w>
af e
pi an
trist es</w>
on ía</w>
car á
avi s
hac és</w>
comprend és</w>
fat al</w>
cal lej
di gas</w>
que do</w>
ca erse</w>
hi po</w>
segu ido</w>
bas ti
ci ta</w>
par ado</w>
m eras</w>
mir arse</w>
n ad
cre as</w>
su yo</w>
barb aridad</w>
tu m
r an
débi l</w>
ten ga</w>
pé rez</w>
cami ll
podr ían</w>
viol encia</w>
re presenta</w>
presi ones</w>
d encias</w>
tel ón</w>
pi pa</w>
gaulo ise</w>
o fici
posi ciones</w>
cont empor
car ac
activi dades</w>
com posición</w>
hici eron</w>
inúti lmente</w>
qued aban</w>
princi pal</w>
cré ame</w>
inter és</w>
compr en
gust ó</w>
m ó</w>
apre taba</w>
fu l
re aliz
di d
ch is
pen oso</w>
ver á</w>
náu sea</w>
ti bio</w>
cara co
des can
mar se
in visible</w>
ex pres
expli ca</w>
ent en</w>
ven i
pá lido</w>
brasi l</w>
hu mano</w>
qued aron</w>
gu ero</w>
éndo me</w>
eng año</w>
golpe ar</w>
des e</w>
compr endió</w>
ver sión</w>
pas s
d era</w>
ba ta</w>
a pa</w>
dem ostr
especi almente</w>
tien de</w>
resbal ar</w>
pu cho</w>
ri ca</w>
lleg ada</w>
pant alla</w>
ali stas</w>
descri pción</w>
person almente</w>
úti l</w>
satis fac
ló gico</w>
al ab
tur b
ensa y
o í</w>
al ba</w>
tiem bla</w>
le tra</w>
le yó</w>
movi do</w>
ca us
recor r
nue vas</w>
dest ino</w>
vo cab
in quisi
gab ard
no ct
at es</w>
cami se
camise ta</w>
ti er
llev aban</w>
di ct
tra j
c tica</w>
es pl
resul tado</w>
fest ej
cad á
po zo</w>
qued é</w>
armon ía</w>
ceni cero</w>
ant úne
antúne z</w>
inquie tud</w>
fal taba</w>
pes adilla</w>
pla ya</w>
ti zas</w>
is las</w>
f áb
mun dial</w>
escrib ía</w>
n arr
nu do</w>
k un
acel er
campes ino</w>
beau lieu</w>
tin ti</w>
ser r
ir os</w>
regal an</w>
co mité</w>
caso ar</w>
man gu
zi p
ceni za</w>
and ando</w>
cin tura</w>
son reía</w>
dent í
dentí fri
port ales</w>
d ora</w>
estudi antes</w>
fr í
pi so
lé onie</w>
frac aso</w>
costum bres</w>
minuci osamente</w>
ingr eso</w>
aj ed
ajed rez</w>
mé todo</w>
con sist
imbé cil</w>
termin aba</w>
oscur as</w>
d ación</w>
gui ta</w>
lí os</w>
gir aba</w>
éndo lo</w>
enor mes</w>
des gracia</w>
terr ón</w>
ad ura</w>
gor da</w>
meti dos</w>
in ti
peg aj
san gr
ch im
ayu daba</w>
pas arse</w>
e cha</w>
condi ción</w>
dec ír
llev ado</w>
tér min
términ os</w>
pu ros</w>
pe tri
pi lo
ati vas</w>
g a
so ber
no ciones</w>
m ace
llam arlo</w>
cant ando</w>
ci dent
ser ían</w>
des concierto</w>
muñ equi
re ligi
t un
sab or
ayu dar
más cara</w>
se o</w>
inf lu
civiliz ación</w>
vi ce
vice versa</w>
téc nica</w>
inst into</w>
con serv
posi bles</w>
pu ñ
sentim ental</w>
l or
gi dos</w>
necesi taba</w>
lam ento</w>
vent aja</w>
des agradable</w>
me tía</w>
l t</w>
man ej
sal irse</w>
ari to</w>
gust an</w>
fun dam
metafísi ca</w>
conven cerse</w>
descu bierto</w>
fantas ma</w>
lí quido</w>
áng el</w>
fal le
w e
m aba</w>
besti a</w>
per didos</w>
su til</w>
gr ati
satisfe cho</w>
pro ponía</w>
ri qu
fas cin
des precio</w>
respir ando</w>
apoy ando</w>
b er</w>
án eo</w>
ex clam
com port
f ino</w>
an al
i ta</w>
ob edi
soli t
nom br
ni cas</w>
fic aciones</w>
exclu sivamente</w>
bo fet
sín tesis</w>
satisfe cha</w>
exig e</w>
co ño</w>
alg as</w>
du cha</w>
par eja</w>
peld año</w>
un e</w>
cor te</w>
moj ada</w>
re po
gui tar
guitar ra</w>
des g
entr ando</w>
cerr ados</w>
mue ve</w>
cam p
instantán e
at in
l er</w>
inso port
insoport able</w>
retor cía</w>
hon do</w>
borra cha</w>
lar g
bo dy</w>
j ad
rit mo</w>
incon cebi
infini tamente</w>
nie bla</w>
levant aba</w>
o k</w>
nu ca</w>
ru t
distin to</w>
ar las</w>
cost ado</w>
of ensi
ej ér
ejér cito</w>
tij eras</w>
cor tar</w>
có r
a in</w>
ge t</w>
mal v
fres ca</w>
estr ella</w>
gri taba</w>
resist encia</w>
pa y
pedir le</w>
cari cias</w>
naci do</w>
mir arla</w>
viol entamente</w>
desnu da</w>
en berg</w>
emo ción</w>
w ar
anteri or</w>
acer caba</w>
je fes</w>
b un
le cción</w>
compañ eros</w>
di fun
pregun tarse</w>
s í
tab ure
expli c
and ate</w>
ju go</w>
des ci
pregun tarle</w>
ol ogía</w>
empr esa</w>
j ab
palan gana</w>
menci ón</w>
man ch
maravi lla</w>
empez ás</w>
est ación</w>
li </w>
horizon te</w>
ex acto</w>
mani fest
ver b
inte gr
sent ó</w>
diálo gos</w>
fen ó
am ante</w>
cerem onia</w>
bur gu
volvi endo</w>
orgu llo</w>
obje tos</w>
car ame
prote g
hist orias</w>
af lig
ahog ado</w>
cre vel</w>
el le</w>
a pa
is mos</w>
per man
j eros</w>
depen de</w>
su bi
per ple
comuni cación</w>
v al</w>
her ido</w>
sal ían</w>
cru z
asi ento</w>
op ti
superfici e</w>
compañ ía</w>
aj ena</w>
d entes</w>
ata ú
sem i
no n</w>
ve h
in tro
ce di
gen i
ti vas</w>
ori gin
b lo
é tri
in dign
pas eo</w>
sigui eron</w>
repe tía</w>
tem as</w>
ro tas</w>
sti cos</w>
su cesivamente</w>
clav ado</w>
ju an</w>
con mo
atri bu
tembl aba</w>
cont aba</w>
admir ación</w>
inter na</w>
co br
glo bo</w>
in sol
ra ta</w>
bel leza</w>
est esia</w>
lleg an</w>
ber n
tir an
y n
enc endi
ayu dar</w>
s á
vuel va</w>
boni to</w>
pescu ezo</w>
p ando</w>
enc endía</w>
1 4
intelec tual</w>
españ ol</w>
le tras</w>
cer can
hormi guero</w>
tra ición</w>
as ma</w>
qu é
empi ez
empiez an</w>
te z</w>
g el
t te</w>
fras co</w>
i ci
eur s</w>
mo tivo</w>
de cor
fu si
amen az
fres co</w>
esca la</w>
to alla</w>
vu f</w>
on e</w>
v emos</w>
enter arse</w>
antro po
ban deja</w>
cal ma</w>
hos pi
jui cio</w>
prefer ido</w>
cerr aba</w>
co pio</w>
al re
alre dedor</w>
em bu
intent ar</w>
ord ena</w>
v á
lim pi
sirvi ó</w>
her ida</w>
deli cada</w>
ac lar
so ci
o dio</w>
dej aron</w>
fó r
cont enta</w>
enti enden</w>
ri d</w>
asombr o</w>
pl az
nove lista</w>
dorm ían</w>
aci on
secre ta</w>
mo de
aprove char</w>
o este</w>
so por
char lar</w>
con tarle</w>
cont ó</w>
si esta</w>
tan gos</w>
cal cu
argent inos</w>
rech azar</w>
cir cul
posibi lidades</w>
mar ti
empe cin
con clu
efic acia</w>
ir ían</w>
señ as</w>
velo cidad</w>
prepar ar</w>
con viene</w>
estruct ura</w>
parti ci
qu ero</w>
fun ciones</w>
se an</w>
bo le
cre ci
ocup aciones</w>
pres cin
pueb lo</w>
ambi ente</w>
h ará</w>
re empl
te jo</w>
dol er</w>
empuj ón</w>
tor ta</w>
clav e</w>
le ón</w>
mis ta</w>
cigar ro</w>
raí z</w>
tu bos</w>
sigui entes</w>
min er
regi ón</w>
y on
pr o</w>
co al
herr ero</w>
estableci mientos</w>
ob li
sobr en
vol ante</w>
flori de</w>
pro visiones</w>
mer cado</w>
col inas</w>
x iros</w>
k lai
klai os</w>
gü em
güem es</w>
vivi enne</w>
cli entes</w>
gu k</w>
hid ra</w>
zip per</w>
ci tas</w>
a is</w>
ven de
to po
abri endo</w>
a un</w>
pareci da</w>
moj ado</w>
ar ías</w>
im pre
en um
enum er
ac tores</w>
dij iste</w>
anci ano</w>
mi ch
j ac
pe tu
su fri
pobreci ta</w>
re p
cie go</w>
cant urre
inúti les</w>
empez ado</w>
pr acti
fic ante</w>
re constru
fl or
cos qui
gan ar</w>
mo dest
modest amente</w>
lo mo</w>
apli cadamente</w>
mi embr
t ó
gi cos</w>
ca z
tembl ar</w>
con ten
furi oso</w>
agaz ap
espu ma</w>
o pa</w>
tom arse</w>
resis tir</w>
e vo
correspon dencia</w>
su pe</w>
id enti
fi cado</w>
he cha</w>
di ca</w>
il le</w>
superi or</w>
transpar ente</w>
in movi
a yo</w>
dol ía</w>
t é
pica porte</w>
desa parecido</w>
man d
fer o
oc cident
eur ope
visi bles</w>
atur as</w>
insom nio</w>
tam año</w>
dormir se</w>
continu a</w>
medi ante</w>
tru co</w>
ejemp los</w>
esca pa</w>
suje to</w>
bal anza</w>
ac at
fi ló
filó sof
apre h
ma yo</w>
espect áculo</w>
fol k
re acción</w>
s p
serv ir</w>
lect uras</w>
individu o</w>
nac ía</w>
defini ción</w>
en zo</w>
re pul
o gi
in deci
tu vi
ar mente</w>
sal ta</w>
asom arse</w>
nu be</w>
fabul oso</w>
ue las</w>
jar ro</w>
ru p
aguant ar</w>
pro por
pusi era</w>
condu ctor</w>
dis cul
prefer ía</w>
hem bra</w>
re zon
espanto so</w>
desper tarse</w>
discu tir</w>
cír culo</w>
de termin
li tro</w>
et te</w>
al muer
almuer zo</w>
dar les</w>
inv ad
desesper adamente</w>
re concili
dur aba</w>
intermin ablemente</w>
confu so</w>
oli endo</w>
v aci
distin tos</w>
compr endía</w>
con sum
t á
peligr o</w>
per a</w>
n er</w>
in fi
tin ta</w>
resent ida</w>
y éndose</w>
re com
acarici ar</w>
sali va</w>
cer as</w>
me te</w>
le ve</w>
tern ura</w>
ej as</w>
pon és</w>
g ando</w>
h im
apoy ó</w>
su cios</w>
pl omo</w>
x o</w>
di e</w>
mi d
que tas</w>
p ira</w>
s h</w>
conoc en</w>
par ezca</w>
al ors</w>
imper cepti
1 3
ár se
ár selo</w>
en am
hu mil
tr en
trat ó</w>
z z
ag as</w>
pro pon
suel ta</w>
so llo
ir realidad</w>
vo mi
aus ente</w>
he chos</w>
ju sta</w>
conoc és</w>
sol tó</w>
re ver
difer encias</w>
c alidad</w>
prácti camente</w>
crí tica</w>
ca i
mir ado</w>
insist ía</w>
e h</w>
mi co</w>
ter cero</w>
in feliz</w>
cl ases</w>
éri co</w>
w il
dr á
re per
cono cer
qu ir
increí blemente</w>
ár amos</w>
bu t</w>
ó tico</w>
t ías</w>
apag ado</w>
comple ta</w>
gener ales</w>
asquer oso</w>
capí tulo</w>
on to
cti va</w>
remo ta</w>
re tir
der as</w>
t w
viaj ar</w>
suspir ando</w>
emo cion
po ll
e las</w>
ac á</w>
es mer
permit ía</w>
gust os</w>
john son</w>
bai la</w>
cre en</w>
impres os</w>
camin os</w>
tomar on</w>
mi a</w>
ch as
ca en</w>
lim pio</w>
hi elo</w>
pian ista</w>
bus c
quini entos</w>
cru z</w>
comport amiento</w>
cará ct
caráct er</w>
deb er</w>
y an
medi tación</w>
soñ ar</w>
co me
conoc ían</w>
t ás</w>
pi edad</w>
sui ci
carame los</w>
te lo</w>
hi ja</w>
quej arse</w>
metafísi cos</w>
cre eme</w>
viol ín</w>
tir an</w>
mo da</w>
quej a</w>
vuel ven</w>
bibli ote
bibliote ca</w>
so ir</w>
ur s</w>
é l
descon cer
pod rido</w>
franc eses</w>
cami lla</w>
p siqui
ser es</w>
absolu ta</w>
bu lo</w>
person ales</w>
di r
fer encia</w>
reuni ón</w>
dis cí
discí pu
esca par</w>
acord ó</w>
progr ama</w>
a pareció</w>
intro du
al um
carac ter
gen io</w>
servi cio</w>
des arrol
des i
son ar</w>
acor de</w>
ci dos</w>
ofreci ó</w>
pres u
sim pat
h y
sacu diendo</w>
arti cul
per dió</w>
qui taba</w>
cur r
apar ición</w>
equivo cación</w>
res erv
é xi
ä n
fam oso</w>
dol es</w>
man ote
car le</w>
c ón</w>
di eci
entusias mo</w>
qui era</w>
descan so</w>
gu ste</w>
er e</w>
bord es</w>
incon veni
trag ar</w>
curi osamente</w>
golpe ando</w>
inter ro
suspir o</w>
r osas</w>
clasi fi
dej aban</w>
sal ón</w>
est af
oblig ado</w>
a pi
quie to</w>
dej ara</w>
dan s</w>
dr ama</w>
z ás</w>
r endi
en ven
t azas</w>
f os
ti s</w>
adó nde</w>
hospi tales</w>
parec és</w>
apoy ado</w>
jue ga</w>
conqui sta</w>
ho mo</w>
sa que</w>
t amos</w>
vien en</w>
cor to</w>
llam ás</w>
cu á
constitu ye</w>
pro ced
trat ado</w>
má gico</w>
puls era</w>
ér co
luc ca</w>
ten íamos</w>
telegr amas</w>
dire ct
ab ar
e le</w>
teléfon os</w>
o las</w>
ju gu
mad rid</w>
pró ximo</w>
dr es</w>
te atr
al ent
rel aciones</w>
tend encia</w>
inquisi dor</w>
li mit
noct ur
s ard
re tr
con desc
di ri
mar tín</w>
ul ar</w>
am o
ca pital</w>
enci clo
enciclo pedi
bur l
ladri llo</w>
gar del</w>
nu mer
des pa
soli ci
cali p
re curso</w>
agreg ar</w>
ju ventu
juventu d</w>
sorpr endido</w>
inter val
car on</w>
cabal los</w>
emple o</w>
fáci les</w>
con gel
di ría</w>
gl adi
viol enta</w>
tir ón</w>
ti go</w>
jur o</w>
lac e</w>
dent ista</w>
fi esta</w>
volu ción</w>
multi pli
pre texto</w>
ti c</w>
ray os</w>
u su
entendi miento</w>
win d</w>
sto p</w>
e fectos</w>
camis ón</w>
can ciones</w>
ex ter
inqui et
tu des</w>
j ada</w>
inte ligi
compañ ero</w>
vesti da</w>
fir mar</w>
respe cto</w>
mej or
5 6</w>
salu do</w>
ejempl ar</w>
insens atez</w>
ex ten
continu ar</w>
ct ores</w>
pl ata
plata forma</w>
molé culas</w>
for mar</w>
re produ
simu lac
om bre</w>
morelli ana</w>
t here</w>
dij eron</w>
lev anta</w>
miner ales</w>
hos ti
fáci lmente</w>
estampi llas</w>
ram o</w>
cou cher</w>
cu a</w>
conven cer
ocup ada</w>
equivo cado</w>
san ti
det ec
detec ti
detecti ves</w>
dar á</w>
fi el
autom ó
jab ón</w>
tron co</w>
carre tera</w>
lu is
luis a</w>
rece pt
tri dente</w>
fu entes</w>
emp an
coal tar</w>
tiran uelo</w>
cá ta
cáta la</w>
19 7
ad be
adbe kun
adbekun k
adbekunk us</w>
ar co</w>
qu ai</w>
distingu ir</w>
necesi ta</w>
li os</w>
habit aciones</w>
fal sos</w>
a que</w>
st </w>
ag ol
al ina</w>
so u
plac e</w>
tor pe</w>
pá jar
pájar os</w>
z ada</w>
cord ón</w>
ferro carri
k y
semej antes</w>
piso te
n in
des pedi
ib as</w>
al tos</w>
a za</w>
cu cara
ventani llas</w>
vi tr
ándo te</w>
ale a</w>
ro jos</w>
v ías</w>
pre via</w>
corr ían</w>
har ol
mont par
zon as</w>
absur das</w>
con seguía</w>
ti ta</w>
com parti
habl ábamos</w>
des preci
ley es</w>
mill ones</w>
di men
s am
a sust
k er</w>
cre yendo</w>
pel ir
gall ina</w>
ir e</w>
vi les</w>
má quinas</w>
terri bles</w>
enamor ada</w>
pl ato</w>
to cando</w>
te ca</w>
bol so</w>
hab erlo</w>
re trato</w>
a qui
dec encia</w>
deli ber
vo mit
su yos</w>
ovi llo</w>
gir ando</w>
eri a</w>
sex o</w>
cor nio</w>
go zar</w>
jau la</w>
volver ía</w>
pretend er</w>
co ch
v ender</w>
metr ía</w>
o ba</w>
ciu dad
co t
am érica</w>
pi s</w>
equi val
dis tr
t empr
h ur
ne o</w>
vol viera</w>
o sis</w>
g amos</w>
ant os</w>
particul armente</w>
form aba</w>
it iner
ilumin ada</w>
rup tura</w>
interes ado</w>
è ne</w>
estatu a</w>
ado quin
o u
blan cos</w>
mod esto</w>
z ón</w>
su yas</w>
lí g
gri ta</w>
trabaj a</w>
ro u
li bri
tu los</w>
mon d</w>
re cep
filosof ía</w>
insensa to</w>
terri blemente</w>
qui tarle</w>
deli cado</w>
evid entemente</w>
o t</w>
men es</w>
obr as</w>
furi osa</w>
tem er
oscur amente</w>
tar la</w>
atr o
mont aña</w>
l ación</w>
as c
apr ender</w>
encontr arse</w>
ni a</w>
des de
ti me</w>
bibli ot
cambi os</w>
cál culos</w>
elig e</w>
bus co</w>
and an</w>
bo cas</w>
encu entran</w>
simu lt
sab or</w>
le o
pe ceras</w>
sus pen
be be</w>
ar íamos</w>
per ros</w>
pri v
astr e</w>
li t
obedi encia</w>
mostr ar</w>
produ cto</w>
ben e
justi cia</w>
dem onio</w>
char co</w>
má ximo</w>
sol em
por tal</w>
ro ta</w>
confu sa</w>
al le
po ur</w>
bar ato</w>
re i
gan ado</w>
sosten ido</w>
fr at
pi la</w>
fon o</w>
ven go</w>
estu dio</w>
mue bles</w>
joh n</w>
on el</w>
pre t
bri lla</w>
orqu esta</w>
su sur
os ci
tr es
movi endo</w>
reuni ones</w>
per se
enam orado</w>
as oci
d ían</w>
llen ando</w>
pá li
kin s</w>
ad agio</w>
mo zar
mozar t</w>
v ina</w>
k a</w>
li p</w>
bes sie</w>
bl and
li ta</w>
est ados</w>
inconcebi ble</w>
tali dad</w>
lej ano</w>
aver igu
admir able</w>
pár pados</w>
apoy ada</w>
american a</w>
anti gu
acarici ando</w>
per í
oj al
ojal á</w>
bo st
cre tin
pi to</w>
re fri
am is
amis to
ati vos</w>
g enti
graf o</w>
de cep
des vi
bi lle
se e</w>
ví cti
des pe
af ligi
man drá
in vesti
á ticamente</w>
p ali
h t</w>
w n</w>
trabaj aba</w>
itali ano</w>
hu medad</w>
qui to</w>
vag os</w>
ol er</w>
me can
vi dad</w>
sal ga</w>
murmur aba</w>
ani midad</w>
ing ton</w>
g es</w>
li bres</w>
19 2
d ay</w>
en eo</w>
man chas</w>
deber ían</w>
ocup aba</w>
maravill oso</w>
suel to</w>
el en</w>
circunst ancia</w>
interes aba</w>
wit h</w>
a pareci
tw o</w>
med alla</w>
dis te</w>
ar gu
hag ás</w>
roman ti
romanti cismo</w>
só tano</w>
mucha chas</w>
co go
cui dad</w>
idi oma</w>
ar que
ol es</w>
en seña</w>
lleg ando</w>
po ten
su bido</w>
tabure te</w>
al em
se l
se amos</w>
z u
de du
señ ores</w>
resbal ó</w>
espon j
1 5
compr endo</w>
rig or</w>
acompañ arla</w>
man tas</w>
de u
s che</w>
ais l
chi l
ar e</w>
chor rito</w>
gr á
ir onía</w>
b and
ir te</w>
fenó men
fenómen o</w>
acost ado</w>
sufr ir</w>
callej ón</w>
habr ás</w>
b ello</w>
soli d
pañ uelos</w>
vay as</w>
enderez ándose</w>
ent endía</w>
ri es
pul ó
pe der
encontr é</w>
li p
aut én
mir o</w>
p la</w>
preci osa</w>
muer e</w>
propi amente</w>
ocurr en</w>
gi l
testi gos</w>
perfum es</w>
verdad eras</w>
jue z</w>
ton ta</w>
llo ver</w>
ti lla</w>
psiqui atr
den unci
oló gico</w>
ofi cio</w>
podr íamos</w>
enfer meras</w>
mostr ador</w>
cuad erno</w>
peri ó
ataú d</w>
car teles</w>
te or
ci ento</w>
chale co</w>
car go</w>
án ea</w>
atr e
vi va</w>
cé lu
hu ella</w>
cuadr ados</w>
ple g
sab an</w>
cel este</w>
3 2</w>
conmo ve
s ú
sti cas</w>
simpat ía</w>
aprovech ando</w>
es pas
gu ante</w>
call ara</w>
sorpr end
compren sión</w>
cre erlo</w>
vómi to</w>
e char
re anu
í stico</w>
éxi to</w>
r ama</w>
ent an</w>
g em
do p
dop pel
doppel g
doppelg än
doppelgän ger</w>
inc endi
inter pre
á nimo</w>
bal cón</w>
pres tigio</w>
l ana</w>
sigui era</w>
sol tar</w>
caraco l</w>
almac én</w>
dé j
abo ton
gigant esca</w>
satis facción</w>
c acer
pu t
d í</w>
ver los</w>
br as</w>
suel tas</w>
artí culo</w>
dad as</w>
c án
pi z
ingl és</w>
chor ro</w>
an de</w>
apag ó</w>
ra yo</w>
respe tu
e tr
bar do</w>
cri aturas</w>
cali dos
calidos copio</w>
ba se</w>
sa pien
sapien s</w>
ases ino</w>
agar ra</w>
salv ación</w>
ar qui
ur ani
coher ente</w>
t ori
mer ec
cre emos</w>
o x
g eno</w>
ech ar</w>
car la</w>
dis ta</w>
pu ño</w>
g os
inform ó</w>
es pero</w>
mar tes</w>
vali ja</w>
paque tes</w>
guar dar</w>
asom bra</w>
enti erro</w>
lav ab
c tos</w>
pon ele</w>
fór mula</w>
cór do
córdo ba</w>
t ana</w>
v ar</w>
a parecen</w>
h ol
quer ías</w>
lon dres</w>
empe ñ
im </w>
administr ación</w>
parti do</w>
acti va</w>
inmen so</w>
des plaz
com bin
k u
comple tar</w>
sard inas</w>
bar ro</w>
ca jas</w>
escri biendo</w>
excel ente</w>
si ta</w>
m ár
pr om
pais aje</w>
maldi ta</w>
las ti
e ada</w>
amo urs</w>
cos ta</w>
farmacéu tica</w>
eu calip
sa po</w>
calcu lista</w>
eta pas</w>
av en
aven ida</w>
g ora</w>
gabard ina</w>
cl and
cland est
minis tro</w>
hici ste</w>
apo st
ir án</w>
espl én
v ér
enc ad
ten dido</w>
dej e</w>
me tal</w>
ace ite</w>
boni ta</w>
materi al</w>
fas ti
co cin
mad res</w>
duer men</w>
ni camente</w>
v ender
rit mos</w>
cent en
opini ón</w>
mar ca</w>
espir al</w>
á m
apoy ar</w>
fin almente</w>
ocup ación</w>
re wind</w>
manu al</w>
exter ior</w>
deten erse</w>
ent revi
es quinas</w>
o me</w>
estupe fac
sab ían</w>
si a</w>
prof esi
prá ctica</w>
2 2</w>
reci bido</w>
con junto</w>
res puestas</w>
at ender</w>
condi ciones</w>
per si
j os
jos é</w>
cerebr o</w>
on as</w>
prote í
tarje tas</w>
a parece</w>
h es</w>
arreg lo</w>
tec n
om </w>
aj en
cor ta</w>
pel aje</w>
escri ba</w>
aj eno</w>
ac tor</w>
ser án</w>
cant an</w>
od y</w>
secret ario</w>
ñ ata</w>
yon der</w>
cab ar
re cursos</w>
par da</w>
des ign
an estesia</w>
mon j
monj es</w>
com unidad</w>
lab or</w>
ofi cinas</w>
ber os</w>
acer carse</w>
bañ arse</w>
s end
bo cinas</w>
pasaj eros</w>
observ aciones</w>
trag os</w>
man olita</w>
desembar co</w>
basti dores</w>
t ajo</w>
guirn alda</w>
bu lev
cón dor</w>
to ta</w>
cli ent
client ela</w>
empan adas</w>
son net</w>
bas tado</w>
a pri
bou lev
boulev ard</w>
sub í</w>
ro to</w>
cos tillas</w>
j ir
des tro
ca yendo</w>
ferrocarri l</w>
arran ca</w>
spe d</w>
pro fer
si ma</w>
l om
vi ajes</w>
et s</w>
sab erse</w>
pro a</w>
cort inas</w>
el les</w>
tien das</w>
to ur</w>
pro hi
in signi
vio letas</w>
mir ándome</w>
sen os</w>
disimu lar</w>
ver te</w>
movi éndose</w>
ter ci
tor pe
tor re</w>
c ías</w>
bicicle ta</w>
montpar nas
montparnas se</w>
ser pi
g oma</w>
cuch arita</w>
vi vas</w>
bur bu
con tenido</w>
de bi
le gi
sinti era</w>
gig ante</w>
preci oso</w>
éndo los</w>
fo to
oni os</w>
mezcl ado</w>
mo zo</w>
mo vían</w>
gall inas</w>
én donos</w>
agarr ar</w>
carcaj adas</w>
episo dios</w>
chim en
si ri
abri era</w>
pre lu
neces aria</w>
decír selo</w>
er u
dial é
dialé cti
peli to</w>
algod ón</w>
pre cario</w>
dibuj aba</w>
l ancia</w>
b esos</w>
vol cado</w>
acor ral
in depen
estúpi das</w>
fantas ía</w>
cant ante</w>
vo ci
man n</w>
gar ant
tr ampa</w>
ej e</w>
a xi
ant as</w>
pueb los</w>
cat e
lev emente</w>
dor mida</w>
ha y
apar entemente</w>
consegu ido</w>
ro tun
ab og
pli e
deli cadamente</w>
mo ver</w>
distr acción</w>
físi ca</w>
acu mul
ingr esar</w>
al tas</w>
esqui mal</w>
m aj
am ores</w>
faci lidad</w>
ce gu
dej arse</w>
asisti r</w>
cri ol
pro clam
autori dades</w>
intelig ente</w>
inevi tablemente</w>
pens á</w>
perfec tos</w>
hormi ga</w>
diab ó
cu bri
soñ oli
mu seo</w>
teni éndose</w>
inf anti
dibu jos</w>
ami ta</w>
r ada</w>
brill antes</w>
e dades</w>
fur tivamente</w>
re lo
viej ito</w>
al bañ
barri ga</w>
ser vía</w>
par ada</w>
ger ma
tar an</w>
incon sciente</w>
sol taba</w>
rom ero</w>
resul taba</w>
oblig aciones</w>
paj arito</w>
te a</w>
g líg
glíg lico</w>
compr endido</w>
v ad
z ados</w>
amar ga</w>
mir aron</w>
ñ oso</w>
remon tar</w>
fi caba</w>
par as</w>
è me</w>
fi jos</w>
interrum pi
rom pe</w>
adolesc ente</w>
cari ño</w>
sonri sas</w>
fun ción</w>
inmen sa</w>
im pr
ejerci cios</w>
mon si
monsi eur</w>
pro cur
lab er
laber into</w>
to co</w>
nac er</w>
di rse</w>
re des</w>
maripo sas</w>
á ticas</w>
acer cando</w>
borra ch
metáfor as</w>
inst ala</w>
cin ta</w>
e au</w>
apre tando</w>
desa for
est emos</w>
mi camente</w>
ac aban</w>
hermos as</w>
è s</w>
le t
m últi
com me</w>
prefi ero</w>
má xima</w>
au d</w>
mon od</w>
de tuvo</w>
b ah</w>
vidri os</w>
tall er</w>
pú a</w>
anunci ar</w>
bi x</w>
des at
for mid
eti quetas</w>
veinti cinco</w>
al t
a ya</w>
urugu ay</w>
mer de</w>
vi br
f all
ri éndose</w>
er s</w>
ag es</w>
organiz ar</w>
mencion ar</w>
susci tar</w>
me la</w>
mej illas</w>
maldi to</w>
ha w
haw kins</w>
escu ela</w>
ta pa</w>
sub li
horri blemente</w>
algod ones</w>
as to</w>
com p
in exist
mir ándose</w>
c esión</w>
s au
permi ti
hi p
sw ing</w>
perí o
mé dicos</w>
ah o
edu cación</w>
adelant ó</w>
mostr ando</w>
compr endi
insisti r</w>
asist entes</w>
cuar ta</w>
id én
sé pti
sépti ma</w>
abi ertos</w>
av a</w>
ér se
gr ot
co agu
w h
z aban</w>
convi erte</w>
en s</w>
cre tino</w>
pe gar
r y</w>
resuel to</w>
malv ones</w>
b oli
en sa</w>
f o</w>
apr endido</w>
un animidad</w>
mil ag
milag ro</w>
a su
ac ent
em </w>
go t
qu o
quo i</w>
j </w>
am ar</w>
ir eneo</w>
no body</w>
per día</w>
f or</w>
pres entes</w>
an á</w>
r aras</w>
invent ado</w>
pres un
bre v
clar abo
clarabo ya</w>
y es</w>
progr eso</w>
ton ter
tonter ías</w>
carcaj ada</w>
famili as</w>
cole cción</w>
óni cos</w>
re d
reac cion
seu dó
sáb ado</w>
bai lar</w>
arran car</w>
ubi cuidad</w>
ter as</w>
me xi
mexi can
conoci dos</w>
du d
extra pol
m bo
alcanz able</w>
tapi o
tapio ca</w>
cubi erta</w>
sim pli
por tes</w>
di á
k y</w>
des par
despar ram
man z
n av
busc ás</w>
po etas</w>
su posi
ru mi
li dos</w>
aci as</w>
bi ó
ant emente</w>
ocurr iría</w>
fi co</w>
ray as</w>
an ali
li c
wat er</w>
tax i</w>
re mat
conoc í</w>
pod ías</w>
v inc
cort ina</w>
culp able</w>
de jo</w>
se p
qued ás</w>
si ga</w>
gust ar</w>
cent av
confu samente</w>
in cómodo</w>
ti os</w>
em pa
am antes</w>
levant ando</w>
s ena</w>
cis ne</w>
qui se</w>
pe u
peu geo
peugeo t</w>
pr ín
prín ci
pens arlo</w>
et es</w>
on s</w>
i les</w>
t aj
áne os</w>
ab omin
bail ando</w>
bail aba</w>
servi do</w>
escri tores</w>
cor ro</w>
may ores</w>
cal le
em in
co media</w>
salu dos</w>
absur damente</w>
ari smo</w>
ten dida</w>
har to</w>
r ar
lat as</w>
pes cado</w>
hel ada</w>
im presiones</w>
ali a</w>
des conocido</w>
audi ción</w>
o cul
fu sión</w>
ex ceso</w>
cumpl ir</w>
impaci encia</w>
célu las</w>
acord es</w>
cul to</w>
maestr os</w>
origin al</w>
tec lado</w>
en ér
2 1</w>
dis minu
f úne
infini tas</w>
arm ado</w>
instal ó</w>
que br
re acciones</w>
en cor
espas mó
baj ito</w>
mar ch
incon gru
caball ero</w>
inter esa</w>
manifest aciones</w>
ci entas</w>
v ano</w>
metafísi co</w>
ayu dó</w>
per u
de bido</w>
pro metió</w>
excep ción</w>
hon or</w>
ment almente</w>
arrastr ando</w>
cu el
manote ando</w>
recu ento</w>
to mara</w>
inten ciones</w>
acost arse</w>
vi ven</w>
movi ó</w>
ag ot
monstru o</w>
re pro
x en
som mer
sommer ard</w>
resuel ve</w>
inconveni ente</w>
fa is</w>
cu char
enc endiendo</w>
m ando</w>
casti llo</w>
prefer i
fir i
su poniendo</w>
respon sab
fí j
bru to</w>
recor dar</w>
in esper
enoj ada</w>
lig ero</w>
llor o</w>
ma is</w>
cont esta</w>
cómo damente</w>
mo l</w>
hab ido</w>
lleg ara</w>
retor no</w>
idio tez</w>
al co
pro puso</w>
el u
respon sabi
pari ó</w>
ab uela</w>
mol ino</w>
vol ando</w>
habr é</w>
ri p</w>
esc encia</w>
sorpr endida</w>
re conoció</w>
bas tar
hue vos</w>
ful gur
ech ándose</w>
pa se</w>
correspon de</w>
ment ales</w>
estupe facto</w>
im pro
tex tos</w>
r án</w>
est én</w>
et h
bal bu
balbu ce
est é
pri ma</w>
oy en</w>
embu do</w>
hu ellas</w>
pol v
fabri car</w>
rí t
tom an</w>
h ed
vivi entes</w>
ban da</w>
i remos</w>
húme dos</w>
é stos</w>
mi érco
miérco les</w>
tin to</w>
li tros</w>
dor mí</w>
e fi
ca z</w>
discu siones</w>
at ado</w>
ti les</w>
4 5</w>
esmer alda</w>
y en</w>
fal tan</w>
impor tantes</w>
lin do</w>
dar te</w>
ayu d
b ati
agrad ec
ber g
recorr er</w>
v re</w>
for t
permi tir
apar i
envi di
visi tas</w>
ir nos</w>
apar ato</w>
an éc
anéc do
consider ablemente</w>
im pedir</w>
sonri ó</w>
medi das</w>
abneg ación</w>
parti cular</w>
oblig ación</w>
fe o</w>
l ami
se t
de pl
espiri tual</w>
g aban</w>
enderez arse</w>
e b</w>
aplas tado</w>
er g
ne v
hid ro
mis er
b ár
higi ene</w>
ce diendo</w>
post ales</w>
angusti a</w>
er al</w>
man tes</w>
dis culp
t orios</w>
s ham
su ave</w>
c el</w>
li smo</w>
ti da</w>
mandrá gora</w>
b ata
inv adi
fas tidi
dej es</w>
ent endió</w>
man olo</w>
dire cciones</w>
trat ar</w>
ton tería</w>
sem br
cre es</w>
ender e
endere zar</w>
der ech
derech os</w>
sil bido</w>
inten so</w>
cor ta
corta plumas</w>
lav atorio</w>
enciclopedi a</w>
inter nacional</w>
tran vía</w>
bi dos</w>
pe ct
vér tigo</w>
qui tó</w>
frac tura</w>
de ar</w>
bot ones</w>
a con
se ctor</w>
repe tir
der ram
tras lad
deci dieron</w>
ali mentos</w>
en canto</w>
higi é
t ac</w>
refer encia</w>
chi vi
diver tirse</w>
dic ta</w>
ch ada</w>
al ari
ti lo</w>
dis cre
ridí culo</w>
psiquiatr ía</w>
maripo sa</w>
trat ativa</w>
colecti vo</w>
tel l
inteligi ble</w>
permi te</w>
bir ome</w>
al man
alman aque</w>
am po
mun ici
brill ante</w>
guar di
at err
alu cin
p ac
nove dades</w>
ra ya</w>
inyec ción</w>
al do</w>
segu imos</w>
v uelo</w>
cost ó</w>
cad ores</w>
escrib en</w>
molé cula</w>
con tiene</w>
áci dos</w>
z an</w>
escri bi
mar es</w>
liter ario</w>
descu bre</w>
abi la</w>
san hes</w>
ob ser
si r</w>
avi ones</w>
preocu parse</w>
eng aña</w>
av anza</w>
li v
san tidad</w>
fáb rica</w>
rech azo</w>
grati s</w>
ti tud</w>
per ci
miembr os</w>
se d
o mi
produ ce</w>
con ceb
fij ar</w>
natur ales</w>
corre o</w>
cion a</w>
há bi
tú a</w>
cat or
cator ce</w>
cin am
cinam omo</w>
american os</w>
lu gares</w>
p s</w>
e li
al za</w>
corpor aciones</w>
c ría</w>
color adas</w>
com unes</w>
amen azas</w>
estr o</w>
b em
bem ol</w>
pro clama</w>
co ches</w>
rode aban</w>
campes inos</w>
cha queta</w>
bos que</w>
vini era</w>
for d</w>
des may
si erra</w>
ci én
serr anos</w>
fraz adas</w>
sombr eros</w>
mat en</w>
arm ario</w>
reci ario</w>
pro tec
ce le
deu dos</w>
ñ atos</w>
ta ta</w>
harol do</w>
flo ta</w>
ar ts</w>
dentífri co</w>
conoc íamos</w>
tarje ta</w>
ter raza</w>
lat ino</w>
cam os</w>
hel ado</w>
mar zo</w>
meter lo</w>
orgu ll
ta cho</w>
plu s</w>
hú n
g ara</w>
pas to</w>
res or
cont entos</w>
fu iste</w>
o grafía</w>
colg aba</w>
alam bre</w>
r incon
rincon es</w>
terci o
tercio pelo</w>
pa ul
pelí culas</w>
estr i
an s</w>
serpi ente</w>
bicicle tas</w>
sent ados</w>
fec un
19 40</w>
ac os</w>
consist ía</w>
insigni ficante</w>
acord arme</w>
bes ar</w>
gr ado</w>
fi jo</w>
excep ciones</w>
ca sillas</w>
liqui dación</w>
sufici encia</w>
pon erle</w>
pu entes</w>
dé ci
ál bu
álbu m</w>
pelu sas</w>
dimen siones</w>
ca te</w>
señ al</w>
ini cial</w>
s cri
n af
arran cado</w>
permi so</w>
escon dido</w>
inti midad</w>
enfureci do</w>
pegaj osa</w>
inter no</w>
tabl ero</w>
ignor ancia</w>
jun taba</w>
vent ajas</w>
pein aba</w>
pa pelito</w>
deliber adamente</w>
con sciente</w>
mor ales</w>
tro u
fin g
pod ri
dom ini
ant ag
car ía</w>
uni cornio</w>
inmovi lidad</w>
vertigin oso</w>
explicar lo</w>
garant ía</w>
b ir</w>
muñequi to</w>
ir é</w>
cate gor
her oí
fl an
s cot
estupe facción</w>
prot esta</w>
signifi caba</w>
tempr ano</w>
ren cor
estudi ar</w>
rápi da</w>
rode aba</w>
cam ar
ejerci cio</w>
nari ces</w>
sk i</w>
maj estu
ex cesi
lo cali
filósof o</w>
apreh ender</w>
cent ri
centri smo</w>
sub ur
polí ticas</w>
puñ et
alcanz ado</w>
jug aba</w>
enter ado</w>
su ced
sexu al</w>
ne go
des embo
li ca</w>
m au
pens ás</w>
itiner arios</w>
de teniéndose</w>
enci ales</w>
ban cos</w>
le des
ledes ma</w>
mor e</w>
adoquin es</w>
relo jero</w>
tro pe
er las</w>
resuel tamente</w>
germa in</w>
vol ar</w>
rou ge</w>
sospech ando</w>
rabi oso</w>
ri endo</w>
anim aba</w>
dibuj ando</w>
é se</w>
cre yera</w>
suspir aba</w>
ani qui
brus co</w>
aver gon
vag ando</w>
húme da</w>
coment ario</w>
compar ar</w>
col ch
lám paras</w>
lú gu
rela to</w>
difí ci
comprensi ble</w>
regr es
cre cía</w>
p acto</w>
ex centr
tor o</w>
ve j
habl aron</w>
pa si
m bres</w>
const el
í fica</w>
m ada</w>
la te</w>
post ura</w>
balan ce</w>
en fr
igu ales</w>
empez ara</w>
hac erla</w>
aut ores</w>
en ses</w>
intelec tuales</w>
individu al</w>
encu entr
probab i
cuad ras</w>
r ab
es col
dibu ja</w>
re cin
pes ado</w>
bus can</w>
profun di
vi vos</w>
instantán ea</w>
dem or
ma ta</w>
ent ri
i tos</w>
fi lo</w>
cu bo</w>
re comi
consecu encias</w>
senti dos</w>
re fin
ch ino</w>
dipl oma</w>
bab y
baby lon
babylon e</w>
tu vieron</w>
gu eu
gueu le</w>
ahog ada</w>
esper aban</w>
entr ara</w>
man gas</w>
arreg lado</w>
le chu
vul gar</w>
cre pi
al zando</w>
li án</w>
deli cados</w>
chimen ea</w>
su cias</w>
óni cas</w>
di v
brill aban</w>
form an</w>
blan da</w>
di sol
ó m
bu s</w>
b ón</w>
bi ll</w>
trom peta</w>
a parecía</w>
pret ty</w>
enci oso</w>
tres cientos</w>
cu ll
liber ación</w>
ad mit
cómpli ces</w>
lu te
expli cando</w>
her z
gl as
acarici ó</w>
bot ón</w>
relámpag o</w>
baj arse</w>
pau l</w>
ca pas</w>
inter ces
uni dos</w>
ceremoni as</w>
comp ás</w>
bar aja</w>
mo cos</w>
vertigin osa</w>
crist ales</w>
in mor
mostr arle</w>
prue bas</w>
ru ta</w>
alej aba</w>
sat ch
satch mo</w>
l aba</w>
entr aría</w>
c esos</w>
co he
cohe te</w>
pi cas
picas so</w>
ver ás</w>
bost ez
convenci dos</w>
mol de</w>
resul tó</w>
si d
pre para</w>
ch ina</w>
nove cientos</w>
cambi ó</w>
repe tido</w>
ver du
verdu go</w>
n í
agach ado</w>
d ante</w>
o ct
cu ero</w>
pri mi
bi g</w>
brus ca</w>
h ave</w>
vícti ma</w>
car an</w>
cri sto</w>
ci miento</w>
cuad ra</w>
em pobreci
m az
reper torio</w>
invenci ón</w>
ex quisi
men ores</w>
al l</w>
f ú
fú t
fút bol</w>
tr ece</w>
ru bio</w>
lar gos</w>
ocup ado</w>
can illa</w>
plant as</w>
bald ío</w>
pudi eran</w>
ver me</w>
fi erro</w>
tobi llo</w>
tap ó</w>
am pli
mecan ismo</w>
res i
se cción</w>
pár ra
a propi
re mem
br omas</w>
dis puesto</w>
bes ó</w>
arr as
invi tación</w>
so me</w>
aw ay</w>
carn av
go t</w>
pens amientos</w>
of a</w>
apre tándose</w>
l à</w>
exig ía</w>
lar gas</w>
ándo las</w>
b ell
tar los</w>
men os
menos cab
bebi da</w>
eleg ante</w>
rode a</w>
brev emente</w>
meti éndose</w>
and én</w>
s cho
scho enberg</w>
escuch an</w>
cor pi
delici oso</w>
gr a</w>
vi ena</w>
tí pi
dul ces</w>
sí mbo
pu dor</w>
z arse</w>
inmen sos</w>
sab rá</w>
desci ende</w>
fo u
om ía</w>
lo gía</w>
to mos</w>
fir mas</w>
afe i
ve leta</w>
contempl ar</w>
di os
tembl or
dej emos</w>
con ce
car gar</w>
suposi torio</w>
cal e
cale facción</w>
res cat
s ini
neg arse</w>
acab ara</w>
prob ado</w>
verb al</w>
no vi
llen aban</w>
re conciliación</w>
fro tó</w>
man da</w>
habl ás</w>
agu anta</w>
at oria</w>
i ciones</w>
co mis
bru talmente</w>
to cándose</w>
and ás</w>
deci sión</w>
ent recor
labi o</w>
tur n
s amari
t acto</w>
necesi to</w>
tobi llos</w>
reun ir</w>
ries go</w>
jun tas</w>
ten ías</w>
puló ver</w>
peder asta</w>
encontr amos</w>
mon eda</w>
qui s</w>
horri bles</w>
d amos</w>
ex ag
conoci da</w>
in al</w>
son ata</w>
p ada</w>
mé rito</w>
car o</w>
s è
tum ba</w>
bo ur
fle cha</w>
ran ura</w>
tendr é</w>
re jas</w>
co bert
o me
ome ga</w>
d anza</w>
sol ap
gol on
golon dr
ol vida</w>
extran jeros</w>
distra í
tend ían</w>
conf li
confli cto</w>
mod esta</w>
es s</w>
dad ora</w>
pos esión</w>
í bulo</w>
prof esión</w>
tar ían</w>
be ber
albañ iles</w>
veh emente</w>
discípu los</w>
anci anos</w>
abri gos</w>
ti mbre</w>
asi s</w>
ci vil</w>
dé li
déli bes</w>
sa ë
saë n
saën s</w>
pro cedi
musi cal</w>
profun das</w>
fr ancia</w>
to talmente</w>
cerr arse</w>
aqu ellos</w>
cor ro
im plac
implac able</w>
oblig aba</w>
enér gicamente</w>
si mo</w>
2 3</w>
instantáne amente</w>
s tra
imagin arse</w>
des ol
viv encia</w>
ll ado</w>
d eri
ll es</w>
dificul tad</w>
l interna</w>
g adas</w>
ar pa</w>
p am
cion al</w>
pas é</w>
col gada</w>
p ía</w>
reanu dar</w>
des pr
deli cad
ten cia</w>
preci os</w>
can gre
resis ti
exal tación</w>
mer curi
ad vi
recu per
cre a</w>
cer le</w>
sosten ía</w>
dieci ocho</w>
c aca</w>
señal ó</w>
ll y</w>
cal lados</w>
ti ron
pas aron</w>
paci encia</w>
o ji
beb ía</w>
re lu
relu cir</w>
sac arse</w>
liter aria</w>
catástrof es</w>
com pl
llen aba</w>
ant s</w>
neg ó</w>
to pi
cuchar ada</w>
ér selo</w>
mar on</w>
tend rá</w>
segu í</w>
c tas</w>
apa sion
decir me</w>
lle ve</w>
preferi ble</w>
acab aría</w>
propi as</w>
acu ario</w>
repeti ción</w>
ex per
su poner</w>
bi s
marse lla</w>
perdon ar</w>
bu la</w>
tir ada</w>
compli cada</w>
prácti co</w>
to st
dej arla</w>
monó ton
capi t
capit án</w>
resent ido</w>
refer ía</w>
en camin
qué dese</w>
quer emos</w>
br ah
brah m
brahm s</w>
reconocer lo</w>
chi </w>
acep ta</w>
en ce</w>
ex pul
al le</w>
poli cías</w>
pr é
golpe a</w>
pre visible</w>
estu vieron</w>
gr apa</w>
descri pti
re m
rem br
rembr and
rembrand t</w>
estu vieran</w>
álo go</w>
v am
arti fici
artifici al</w>
on te</w>
cucara chas</w>
tu te
cambi aba</w>
tur no</w>
responsabi lidad</w>
d ísimo</w>
habl en</w>
pe ga</w>
jor ob
sig los</w>
prepar ado</w>
sti camente</w>
fos for
correspon día</w>
gl aci
avi sos</w>
clási co</w>
ré plica</w>
oi go</w>
tranqui los</w>
neg ativo</w>
pr u
apo ya</w>
camill eros</w>
patri a</w>
dis cursos</w>
oló gica</w>
met en</w>
polv ori
ed én</w>
cul min
hubi éramos</w>
casu alidad</w>
ag nó
umbr al</w>
mas turb
fer ia</w>
agrad ecido</w>
hu esos</w>
sosteni endo</w>
propi et
pen sión</w>
favor able</w>
ve a</w>
agu ar
hay an</w>
lle gue</w>
direct amente</w>
infi erno</w>
ambi ción</w>
hon r
raj á</w>
om bi
flori da</w>
5 3</w>
sch wit
si gil
gu es</w>
ali ment
escon de</w>
hab le</w>
lleg ará</w>
b ado</w>
jugu ete</w>
ex cu
trag edi
ra fa
rafa el</w>
lou vre</w>
car ga</w>
teatr os</w>
trabaj os</w>
compr ado</w>
impul s
b ando</w>
de fecto</w>
di lu
senci ll
sencill amente</w>
descubr ía</w>
esi on
r aci
cifr a</w>
melan col
depl or
visto so</w>
libre ta</w>
tempor al</w>
pin tor</w>
proteg erse</w>
hu mill
már mol</w>
ofici ales</w>
cómpli ce</w>
pen etr
ten derse</w>
z mente</w>
tranqui lidad</w>
bur z
burz aco</w>
san ta</w>
des ti
tr án
di eran</w>
sost u
hon duras</w>
c ár
perfec cion
plu ma</w>
ir ónico</w>
re a</w>
can asta</w>
ri lla</w>
llev an</w>
pre cau
precau ciones</w>
re lev
simpl es</w>
conf esión</w>
n ación</w>
em per
entreg ado</w>
person aje</w>
acab ado</w>
oca siones</w>
continu ación</w>
ni z
sac aron</w>
sub terr
ech arse</w>
docum ento</w>
sue co</w>
am in
preocup ado</w>
desen canto</w>
sal pi
encad en
p ino</w>
baj ado</w>
pr os
mue vas</w>
el éc
eléc tri
ve ge
á tico</w>
man teca</w>
conoc emos</w>
es cam
ban g</w>
as oma</w>
i dad</w>
cu bre</w>
infer ior</w>
carr eras</w>
ag ü
tras ero</w>
mu elle</w>
pedi ría</w>
car pa</w>
festej ar</w>
coher encia</w>
ha yas</w>
llen ado</w>
dej ás</w>
instrum ento</w>
lo quero</w>
melan có
ali mento</w>
frecu ente</w>
ver es</w>
mor gue</w>
tendr ías</w>
adecu ada</w>
bole tín</w>
al turas</w>
soñ é</w>
li za</w>
come dor</w>
a hu
mac ana</w>
a fin
grab ador</w>
en gan
ingr es
fran camente</w>
ex pect
psi colo
descubri miento</w>
man tenía</w>
par cial</w>
enc ru
encru ci
est er
telefon e
bi da</w>
lleg aron</w>
ten erse</w>
mir adas</w>
t ti</w>
19 </w>
exclam ación</w>
es forz
encend ían</w>
tra e</w>
ri ó</w>
dur ó</w>
sorpr endió</w>
reempl az
ag n
ho gar</w>
trabaj ando</w>
ífi co</w>
ad eras</w>
b ó
cur va</w>
estampi lla</w>
zum bido</w>
mit es</w>
def ensi
preci sa</w>
barr era</w>
acu osas</w>
colo car</w>
ven a</w>
cho que</w>
se llos</w>
ca í
di s</w>
profesi onal</w>
al cau
alcau cil</w>
fu eras</w>
cu entos</w>
espo sa</w>
cl au
deslumbr ante</w>
occident al</w>
si mos</w>
neur ona</w>
cle i
astr on
col ó
proyec ta</w>
t son
tson g</w>
ren ov
cos mos</w>
k on
or mente</w>
as e
pir i
peri o
ag ri
res ign
ven as</w>
dig nidad</w>
no via</w>
estr ech
pod er
dis fraz
ar les</w>
su mo</w>
hac erme</w>
nar ra
anunci os</w>
tier ras</w>
ent era</w>
pro cede</w>
hu manos</w>
gui da</w>
científi cos</w>
discu tido</w>
di ble</w>
silenci oso</w>
car peta</w>
adelant ado</w>
sos tiene</w>
pudi ese</w>
cum ple
cumple años</w>
im pl
defini tivamente</w>
mi cro
prote ger</w>
def endiendo</w>
j abon
in du
pro p
ent ado</w>
pari si
abstr acción</w>
agreg a</w>
an ten
edi ficio</w>
n aciones</w>
par dos</w>
dele gados</w>
si metría</w>
fusi les</w>
produ cido</w>
d año</w>
santi gu
soñ ado</w>
acompañ a</w>
in dese
indese able</w>
and ante</w>
explor adores</w>
can did
bom beros</w>
mer ece</w>
empez amos</w>
fati ga</w>
en u
est aciones</w>
ali as</w>
fiel d</w>
aus cul
descans ando</w>
quej aba</w>
vol k
volk sw
volksw ag
volkswag en</w>
por sche</w>
repo so</w>
sali das</w>
escuch ó</w>
cubi erto</w>
cal lado</w>
cadá ver</w>
pl an</w>
pued an</w>
man anti
mananti al</w>
famili ar</w>
chiqui ta</w>
alcan cé</w>
fras cos</w>
pab lito</w>
acari cia</w>
feli sa</w>
um bre</w>
urani a</w>
recept or</w>
departam entos</w>
pass age</w>
pr usi
protec ción</w>
gir as
fi ac
difun to</w>
hum bol
humbol d
humbold t</w>
carn ales</w>
ver ja</w>
no table</w>
prim as</w>
secret aria</w>
bar cos</w>
eucalip to</w>
mangu eras</w>
ru mano</w>
w o
wo ody</w>
ob vio</w>
angusti as</w>
super mercado</w>
encontr aría</w>
inscri b
lú cida</w>
g h
char lando</w>
comi endo</w>
chi ll
hab ías</w>
mos cas</w>
arm ó</w>
catástrof e</w>
relámpag os</w>
frí os</w>
jir ones</w>
re íamos</w>
tir é</w>
cé sped</w>
moj ados</w>
nin gun
ningun o</w>
sor pres
sorpres as</w>
libr ería</w>
fi chas</w>
hist ori
ca ño</w>
preci sar</w>
re luci
s el</w>
rode o</w>
mich el</w>
hubi eras</w>
pr estado</w>
continu amente</w>
amari llas</w>
j alea</w>
tab as</w>
neg ativa</w>
acept able</w>
dí os</w>
ba sur
canturre aba</w>
practi car</w>
au xi
extra er</w>
llo vía</w>
atac ado</w>
reconstru ir</w>
úti les</w>
reco br
om en
rom p
ex </w>
fon ía</w>
increí bles</w>
ú es</w>
se cos</w>
re ales</w>
aj os</w>
em bal
vi lle</w>
volver á</w>
res cate</w>
ob e
jun tar</w>
ger entes</w>
parale le
paralele pí
curi osidad</w>
encontr arlo</w>
desesper ación</w>
agazap ado</w>
e aban</w>
mezcl aba</w>
ven gan
vengan za</w>
í os</w>
pin tar</w>
llam arla</w>
eter nidad</w>
estr echa</w>
at ina</w>
archi vo</w>
met ó
hu go</w>
su cia</w>
be biendo</w>
ti bia</w>
enfer me
enferme dades</w>
emi os</w>
eti queta</w>
esp ía</w>
irri tación</w>
eci ta</w>
pelo ta</w>
indepen dencia</w>
hipó cri
mol estaba</w>
di co
dico tom
sent ar</w>
mace tas</w>
le tr
voci fer
du lo</w>
cum ple</w>
categor ías</w>
her oi
altern ativamente</w>
ceb ar</w>
fum aba</w>
abog ado</w>
fi li
fij ado</w>
scot ch</w>
con firm
fel pa</w>
t áci
evid encia</w>
oblig ó</w>
tram pas</w>
and ado</w>
end erse</w>
ci endo</w>
tí mi
acompañ ado</w>
com probar</w>
cl er
abstr acto</w>
j uni
ov </w>
tranqui l
tranquil amente</w>
peligr osamente</w>
m ario</w>
c ú
re o</w>
elig en</w>
lament able</w>
r al</w>
in ete</w>
a cur
acur ru
par to</w>
dej ándose</w>
ri tos</w>
des pedir
s no
cis co</w>
ir ène</w>
lig era</w>
vis ados</w>
clar as</w>
enter nec
pan or
in capaces</w>
sospech aba</w>
ed ra</w>
misteri oso</w>
pl azo</w>
ren au
renau lt</w>
present ó</w>
pr és</w>
vi do</w>
gr av
fi s
cont estaba</w>
pro ven
lan ce</w>
re ti
tir aba</w>
tí tulos</w>
preten día</w>
can o</w>
ji ta</w>
arre bat
llovi z
escal ón</w>
fil tr
fin giendo</w>
falle ba</w>
qu ema</w>
mar ea</w>
e con
olvid ada</w>
encant aba</w>
hi pos</w>
ron quido</w>
de volver</w>
di lig
confu siones</w>
neu tr
mat ara</w>
fé ni
lustr al</w>
cuar tos</w>
desnu dos</w>
estr angu
desa fi
acept ado</w>
ar lt</w>
convers aciones</w>
ri o
bibliot ecas</w>
vag as</w>
fe cha</w>
probabi lidades</w>
fat alidad</w>
sali era</w>
son ríe</w>
mir amos</w>
profundi dad</w>
frag ancia</w>
b ella</w>
ac era</w>
turi stas</w>
mace ta</w>
entri st
deli cadas</w>
especi ales</w>
gu san
exac ta</w>
bi go
ale tas</w>
flo tando</w>
sol tarse</w>
v ar
colg ó</w>
discu tían</w>
abur rido</w>
monó tono</w>
per sist
qui e</w>
gru ñ
revi enta</w>
contradict orio</w>
bofet ada</w>
pun tapi
sen si
alu siones</w>
deli cias</w>
inoc encia</w>
ad am
men do
por ta
far ol</w>
in mun
rei ter
meti das</w>
músi co</w>
ñ i
á s
2 8</w>
cor ne
at or
formid able</w>
influ encia</w>
meti endo</w>
mi cr
habr án</w>
sone tos</w>
guar daba</w>
div án</w>
est er</w>
óm ni
ómni bus</w>
lau tré
lautré amon
lautréamon t</w>
call arse</w>
mir ándolos</w>
sal taba</w>
vertigin osamente</w>
susur ro</w>
man ta</w>
clav ada</w>
venci do</w>
gr ados</w>
concep to</w>
mat ando</w>
re conocimiento</w>
diver tía</w>
humil de</w>
ex hi
enti miento</w>
cu este</w>
patri o
tran sil
transil vani
irre fu
arru in
herz ego
glas go
glasgo w</w>
ve ían</w>
pa sillos</w>
asom ar</w>
us ados</w>
can asto</w>
est ada</w>
interces ores</w>
muestr an</w>
inexist ente</w>
imagin able</w>
desesper ada</w>
vomi tar</w>
ech aba</w>
cau se</w>
r au
á mi
ex cur
dese ado</w>
lav ado</w>
antigu o</w>
fal o</w>
e y
bostez ando</w>
cretin os</w>
bul to</w>
rut ina</w>
esco ger</w>
situ arse</w>
po ste</w>
pul so</w>
a k</w>
mal as</w>
sex ta</w>
acer cándose</w>
desde ñ
docum entos</w>
man darse</w>
mu ecas</w>
ser é</w>
in audi
can alla</w>
ani ta</w>
com pad
co co</w>
u ña</w>
b ye</w>
just </w>
gu ra</w>
t he
rig ht</w>
ot her</w>
b ack</w>
ta par
bi zca</w>
d á
ísi mas</w>
arran caba</w>
mir ás</w>
hom en
res umen</w>
deber ías</w>
john ny</w>
el á
beau ti
beauti ful</w>
got ta</w>
av o
po ur
ren é</w>
carnav al</w>
ca ch
to i</w>
bail aban</w>
vol aná</w>
val en
valen é</w>
en lo
tor bell
rom án
escupi deras</w>
ale g
aleg óri
sospech ado</w>
delici osa</w>
eci ó</w>
vi stas</w>
po ético</w>
tr enes</w>
amari ll
g im
cari dad</w>
ven gas</w>
sabi das</w>
i stas</w>
an óni
bar ata</w>
un esco</w>
a er
bai le</w>
b ec
avent ura</w>
ac e</w>
do wn</w>
minuci oso</w>
os car</w>
pe ter
peter son</w>
españ oles</w>
escu elas</w>
t hi
extrapol ación</w>
ag on</w>
fan ía</w>
in alcanzable</w>
mas ti
univer sidad</w>
hi jas</w>
escon dida</w>
conver tido</w>
cer te
aci ta</w>
borrach era</w>
do d
a to
car tón</w>
clar amente</w>
cord eri
mens ajes</w>
fal taban</w>
nav aja</w>
dios es</w>
sal am
ber ri
a horr
chil lidos</w>
e pí
farm acias</w>
fri to</w>
j arri
jarri to</w>
m ón</w>
re puesto</w>
per spe
pe ón</w>
preocup aba</w>
su puesta</w>
ur o</w>
espo sas</w>
consi go</w>
andu vieran</w>
tr aste</w>
bi lla</w>
imagin ando</w>
dej en</w>
ceb ando</w>
vinc ent</w>
bo ti
explic á</w>
n al</w>
rezon gó</w>
disimu l
ó p
barri os</w>
si tios</w>
qued amos</w>
cas te</w>
ver ía</w>
mat es</w>
exag er
nu dos</w>
comprend é</w>
gr atu
jun tan</w>
di mos</w>
discu ti
tr ó
pres os</w>
abur ri
do u
sur re
ali smo</w>
o gar</w>
natur alidad</w>
ali to</w>
ju lio</w>
abomin able</w>
g s</w>
si go</w>
señal ar</w>
cui dando</w>
centav os</w>
hi la
ch ados</w>
us ando</w>
cepi llo</w>
ad je
cri s
golondr ina</w>
nad ando</w>
dó s</w>
mir arme</w>
desconcer tada</w>
monstru oso</w>
p ère</w>
camill ero</w>
defini tiva</w>
tu ber
mue ven</w>
a per
aper tura</w>
irri s
opti mismo</w>
cont actos</w>
n ess</w>
z ante</w>
respon der</w>
inyec ciones</w>
imagin aba</w>
empuj ando</w>
conden ados</w>
ca yera</w>
au str
enc endido</w>
des cifr
contempor ánea</w>
fat í
par aliz
geni al</w>
intu ición</w>
ca pt
or ador</w>
est ética</w>
b am
an cho</w>
si tas</w>
g am
u za</w>
trans cur
1 2</w>
distin tamente</w>
ñ ó</w>
2 4</w>
cr om
li s
ac adem
academ ia</w>
li stas</w>
acompañ ar</w>
rest ante</w>
segu ían</w>
inter cal
je an</w>
visto samente</w>
gu antes</w>
compr endiendo</w>
present ación</w>
dos cientas</w>
n at
trag ando</w>
sali eron</w>
afi cionado</w>
afir mó</w>
fundam ental</w>
murmu llo</w>
calcul ando</w>
estuvi ese</w>
rápi do</w>
delicad eza</w>
com pe
pregun tado</w>
z o
anali zar</w>
indi cación</w>
volvi éndose</w>
estúpi damente</w>
mol esta</w>
experi encias</w>
a parecer</w>
sent iría</w>
tendr ían</w>
ve hem
me te
es tra
ac alam
meti era</w>
pr endida</w>
c emos</w>
in asi
inasi ble</w>
prefer encia</w>
olvi daba</w>
so fo
descans ar</w>
est arán</w>
marse ll
arreg lar
o je
oje ada</w>
nervi osa</w>
mas cull
oy eron</w>
baj aban</w>
murmur ando</w>
af li
habl aré</w>
ti g
fin os</w>
ar añ
per ras</w>
enfer mero</w>
gi ble</w>
qued aría</w>
resbal aba</w>
duer ma</w>
k a
condu ctas</w>
pre firi
fam osa</w>
multi tud</w>
alfom bras</w>
golpe ó</w>
ag lu
aglu tin
si er</w>
res plan
chis pas</w>
arm ados</w>
represent ación</w>
cercan ía</w>
sexu alidad</w>
teor ías</w>
nom brar</w>
al fil
separ ados</w>
mal entendi
pl asma</w>
tant eando</w>
abandon o</w>
descubri ó</w>
sujet aba</w>
esper e</w>
u p</w>
despe j
mal os</w>
gal e</w>
alg a</w>
pod remos</w>
trat ara</w>
crist al
ridí cula</w>
expul sión</w>
o k
mo i</w>
v ra
lle go</w>
empap ado</w>
asi enta</w>
mi ó</w>
in descripti
vesti dos</w>
son idos</w>
cuán ta</w>
diab los</w>
cord ones</w>
bebi das</w>
permi tido</w>
alco ho
alcoho l</w>
a it</w>
dem onios</w>
lu min
hac eme</w>
mostr ó</w>
hac é</w>
le g
luch ando</w>
jorob ar</w>
den al</w>
enven en
extra ña</w>
est ad
sum aba</w>
li sto</w>
qu el
to ut</w>
hor arios</w>
comuni caciones</w>
chi to</w>
sa qué</w>
sim pá
pel liz
al mor
páli da</w>
ag os</w>
tan os</w>
g ás</w>
arran có</w>
sim étri
tent ación</w>
al ac
az ones</w>
refu gio</w>
rece ta</w>
y in</w>
pun tas</w>
and er
en canta</w>
fal la</w>
sent ís</w>
afir mar</w>
ex teri
exteri ores</w>
prot est
arqui tec
satisfac toria</w>
cuá l</w>
en ri
escuch á</w>
agarr ado</w>
consi dera</w>
pe gar</w>
discu sión</w>
concre to</w>
el ocu
tu ar</w>
pur amente</w>
oí r
apreci ar</w>
peri feria</w>
ori </w>
lim pia</w>
per der
cobert or</w>
convi cción</w>
sal go</w>
cu br
estr ell
qu and</w>
ín ti
vi ern
viern es</w>
son re
mecá nica</w>
efi caz</w>
man de</w>
ven eno</w>
muri ó</w>
pro di
prodi gi
lavab o</w>
pu ri
do sis</w>
re conquista</w>
sar miento</w>
lav alle</w>
e ados</w>
ent eras</w>
beb é</w>
con ej
tien es</w>
e ligi
li cos</w>
ho je
tragedi a</w>
escri ta</w>
tom é</w>
com odi
pro vin
provin cia</w>
emocion ada</w>
fal tar</w>
u f
expedi entes</w>
est acion
po bre
vocab ul
vocabul ario</w>
pro cedía</w>
ven cer</w>
invi erno</w>
mercuri o</w>
anécdo tas</w>
a fec
bi om
refer encias</w>
su br
subr ay
perple jo</w>
contradict orias</w>
s esión</w>
de bió</w>
vel ada</w>
escupi dera</w>
olvid arse</w>
s tri
ho gu
crist alización</w>
ano tó</w>
h oliveira</w>
clochar ds</w>
melancol ía</w>
refri ger
acti vo</w>
edi ciones</w>
ven dido</w>
cu l</w>
ti gr
tigr es</w>
gr asa</w>
hab eb</w>
lat ón</w>
compr arle</w>
ce los</w>
n ar</w>
condesc endió</w>
co li
mu gre</w>
ol f
di osa</w>
diver tían</w>
ro dar</w>
hidro pes
hidropes ía</w>
cogo te</w>
de volvió</w>
desg arr
pobreci to</w>
reci tó</w>
ru mor
habl arle</w>
b ara</w>
salv aje</w>
col abor
cel ular</w>
telefon ear</w>
salv ar</w>
gu lar</w>
di vino</w>
necesi tan</w>
g ías</w>
ar te
az ur</w>
pl af
plaf </w>
pat tern
pattern s</w>
vo y
oper aciones</w>
f ed
ar ra
b ellas</w>
o asis</w>
despa cho</w>
or aciones</w>
abandon a</w>
cár cel</w>
ci cli
hor ca</w>
inqui eta</w>
fr eno</w>
to s
in ch
de por
llor an</w>
so da</w>
hi po
pareci era</w>
di agnó
diagnó stico</w>
cab les</w>
interval os</w>
acab aron</w>
eur opa</w>
vi c
porte ños</w>
entorn ando</w>
trabaj an</w>
acord ar</w>
b le
pron unci
mal ogr
interro g
sent ían</w>
agrad ables</w>
marti ll
silb aba</w>
clandest ino</w>
hir viendo</w>
ru b
cubi ertas</w>
con siguió</w>
gr ave
grave dad</w>
silb ando</w>
llev aran</w>
ñ ato</w>
to allas</w>
particul ares</w>
apli car</w>
titu lar</w>
españ ola</w>
estu dios</w>
bai lar
estudi ando</w>
publi cación</w>
conse jo</w>
ir i</w>
ch an</w>
re vo
revo le
l azo</w>
o le
rol lo</w>
sal dr
in stitu
at ó</w>
ante pecho</w>
invenci ones</w>
enter ne
avan zó</w>
an cha</w>
equi libri
ch au</w>
ri sas</w>
ca pa</w>
vag ar</w>
esplén dido</w>
an álo
compr as</w>
consul torio</w>
artí culos</w>
enfer medad</w>
mol esto</w>
cat ac
in min
escam ote
pien se</w>
centí metro</w>
su pone</w>
agu ja</w>
d ría</w>
estr a</w>
ir is</w>
inf ali
sol tando</w>
ten dió</w>
tre cho</w>
mad era</w>
quer ían</w>
corri eron</w>
z io</w>
consecu encia</w>
t h</w>
y eron</w>
suje tos</w>
cont aban</w>
mecá nicamente</w>
pro ceso</w>
dipl om
ag os
agos to</w>
centen ares</w>
vi lla</w>
afloj ar</w>
u el</w>
ret óri
eni g
cadá veres</w>
impercepti ble</w>
duer mo</w>
son ám
tem or</w>
pal acio</w>
chi tos</w>
sal tan</w>
l ó</w>
ing os</w>
chivi to</w>
soci ales</w>
compr a</w>
consul ta</w>
vent il
contr ol
bor do</w>
val li</w>
atre verse</w>
encruci jada</w>
entrevi sión</w>
cumpli do</w>
re volución</w>
er ían</w>
cor onel</w>
f la
ven ida</w>
sac ara</w>
mor dis
mordis que
pase os</w>
ter tu
reg oci
dis per
in inteligible</w>
r ó</w>
lo cu
ja ponés</w>
man tenerse</w>
ay os</w>
ke y</w>
a presur
insinu ar</w>
se camente</w>
naf ta</w>
pa siones</w>
sustitu ciones</w>
plan es</w>
insensa ta</w>
inform ación</w>
apari encia</w>
ampo llas</w>
extrañ amiento</w>
invent ario</w>
fur g
furg ón</w>
de pósito</w>
trán sito</w>
hel aderas</w>
amonton ados</w>
posi tivo</w>
ascen sor</w>
entor nada</w>
acent u
blan cas</w>
z ombi
zombi e</w>
cli ck</w>
bo can
hel adera</w>
pa sivamente</w>
acept ando</w>
lí mites</w>
fal ena</w>
desper taba</w>
estupefac tos</w>
baj amos</w>
hu ecos</w>
desesper ado</w>
alucin ación</w>
cos tra</w>
cab le</w>
mu do</w>
vend ría</w>
á gi
tir aban</w>
estr at
defen sas</w>
mon o
dis poni
i mi
destin ado</w>
en cegu
inclin aba</w>
esper é</w>
aci dad</w>
tor tas</w>
vani dad</w>
mi len
milen ario</w>
ocu pa</w>
set enta</w>
re fres
do ctos</w>
compr esa</w>
grá fi
tes oro</w>
ac k
musi l</w>
individu os</w>
é li
proteí na</w>
clei cos</w>
á cido</w>
correspon diente</w>
reac cionar</w>
inst ancia</w>
u sa</w>
in só
pr ag
cig arr
cigarr os</w>
mode lo</w>
ste war
e et</w>
mu ro</w>
cat oria</w>
desper té</w>
uni verso</w>
c ante</w>
k on</w>
bon dad
colum nas</w>
gros ero</w>
ju bi
tú n
sur ge</w>
lleg amos</w>
inter nacionales</w>
qued ará</w>
ho me</w>
sab remos</w>
liv ing</w>
noctur no</w>
man tel</w>
e ado</w>
co tiz
tradi ción</w>
cal lar</w>
li zar</w>
alcanz an</w>
hu s
regu lares</w>
explor ar</w>
ase gur
si enten</w>
a poder
desarrol lo</w>
ó tica</w>
mal diciendo</w>
hi er
constru cción</w>
ensa yo</w>
tan e
ac a
tri vi
de fec
t ador</w>
propi cio</w>
seudó po
seudópo dos</w>
h o</w>
z adas</w>
er á</w>
te ar</w>
comuni stas</w>
prof an
car pe
simulac ros</w>
manz ana</w>
ven gan</w>
conceb ir</w>
fi at</w>
sè v
sèv res</w>
procedi miento</w>
contradi cción</w>
tu vieran</w>
v inci
ci ll
tax is</w>
ali vio</w>
fó nica</w>
coment ar</w>
opti mista</w>
repi to</w>
elem ento</w>
si túa</w>
corre os</w>
sain te</w>
libr arse</w>
ing s</w>
ten so</w>
est all
solit ario</w>
á gui
er mo</w>
com en
on ista</w>
h í
r in
sonri ente</w>
sud americanos</w>
pañ a</w>
ó ticos</w>
ru so</w>
bai les</w>
ar teri
esfuer zos</w>
y eso</w>
a parec
in spe
pas tiz
pin zas</w>
mar te</w>
recib ir</w>
instrum entos</w>
alf a</w>
obstin ación</w>
monstru os</w>
suce de</w>
co pas</w>
may ormente</w>
design ar</w>
ri val</w>
ex puls
expuls ado</w>
investi gación</w>
gen eri
generi cas</w>
tu lip
tulip án</w>
candid ato</w>
ejempl ares</w>
expedi ción</w>
jue las</w>
án doles</w>
ca ver
en lace</w>
cuad er
lat eral</w>
reloj es</w>
sus pira</w>
regr esar</w>
mo tor</w>
qu eso</w>
vay an</w>
bañ adera</w>
so to</w>
distraí damente</w>
ru edas</w>
náu seas</w>
fraz ada</w>
adelant arse</w>
mer cur
mercur y</w>
l avan
lavan da</w>
contest ara</w>
reci fe</w>
deci le</w>
pasaj era</w>
cién aga</w>
escuch é</w>
enemi gos</w>
l oma</w>
remon ta</w>
send ero</w>
cu eva</w>
jo didos</w>
ap én
apén dice</w>
di to</w>
sobren ombre</w>
dor ada</w>
inoc ente</w>
pes ca</w>
fal úa</w>
sand alias</w>
nad ar</w>
con c
hu yendo</w>
reco ge</w>
cl ina</w>
expect ativa</w>
vel ario</w>
salu da</w>
reci be</w>
dist ante</w>
res on
transpar entes</w>
bulev ar</w>
ajen jo</w>
convencer me</w>
mem orias</w>
semej anza</w>
radi ante</w>
leo pardos</w>
destin at
proli fer
acu den</w>
pos ar</w>
sal om
impres as</w>
lu pescu
lupescu </w>
ri cas</w>
re públi
presi dentes</w>
pien san</w>
declar ado</w>
automó vil</w>
mangu era</w>
co co
car pin
sand wi
diccion arios</w>
ju árez</w>
sal ins
salins ky</w>
viol on
al berto</w>
tradu cido</w>
and enes</w>
berg man</w>
asom arme</w>
del gada</w>
inclin ada</w>
acer carme</w>
casu al</w>
preci sas</w>
apri eta</w>
do mi
domi ci
post al</w>
encontr arnos</w>
and ábamos</w>
trist emente</w>
ci erra</w>
sacri fi
bus es</w>
quisi ste</w>
vari llas</w>
in noble</w>
llev amos</w>
cre í</w>
w al
enamor ados</w>
ley era</w>
llam amos</w>
ren un
renun cias</w>
ago bi
delant al</w>
h an
conven ido</w>
jac ques</w>
vitr inas</w>
petu lante</w>
medi al
medial unas</w>
cont aste</w>
lí vidas</w>
sab ías</w>
torpe za</w>
vie ira</w>
sil va</w>
movi era</w>
naci miento</w>
ter ren
bal díos</w>
vid ente</w>
par ado
parado ja</w>
mel o
aprovech aba</w>
ol ores</w>
r ones</w>
do ña</w>
reco brar</w>
poli lla</w>
burbu jas</w>
debi eron</w>
pri vi
contr o
fen omen
bi cho</w>
cosqui lla</w>
lo tería</w>
cion ales</w>
reco ger</w>
silb ato</w>
incorpor arse</w>
g é
di ser
mostr ado</w>
mar fil</w>
graf ías</w>
cu b
apl az
señ ales</w>
pelir roja</w>
us ada</w>
c acar
pul ver
pulver iz
sue la</w>
pi co
di n</w>
pl antes</w>
a parecido</w>
eleg ía</w>
plá tano</w>
vir tu
o si
est opa</w>
mir ábamos</w>
ad mirar</w>
ego í
evo cación</w>
de os</w>
do cen
docen as</w>
gu et</w>
viv íamos</w>
el o
descubr í</w>
mu r</w>
pen osa</w>
dialécti co</w>
w ol
wol f</w>
pein ado</w>
dibuj ar</w>
in cont
incont ables</w>
trou ille</w>
fing ir</w>
ad mirando</w>
domini o</w>
co ol</w>
pre jui
prejui cios</w>
livi anos</w>
po é
petri ficado</w>
mis eria</w>
r estos</w>
sent irme</w>
acorral ado</w>
tent ativas</w>
bar ro
exasper aba</w>
derro ta</w>
dicotom ías</w>
arrastr aba</w>
llam arle</w>
o ta</w>
color ada</w>
ec erse</w>
ve cina</w>
fu éramos</w>
mue vo</w>
cu antas</w>
mi ga</w>
def ender</w>
re di
p én
pén dulo</w>
va iv
vaiv én</w>
tras c
trasc end
heroí smo</w>
cosqui llas</w>
quem aba</w>
to cad
tocad is
tocadis cos</w>
jor oba</w>
estudi aba</w>
confirm ación</w>
ele f
lat ino
bar ajas</w>
ir as</w>
is ó
to pos</w>
acti vos</w>
acumul ación</w>
excel encia</w>
cre erse</w>
fi aca</w>
con fer
ini dad</w>
históri cos</w>
frecu encia</w>
to i
porte ño</w>
cole gio</w>
arregl an</w>
ah in
luci dez</w>
at enta</w>
engañ ar</w>
tími damente</w>
ir ac
irac un
des af
superi ores</w>
influ encias</w>
o puesto</w>
hom o
lor enzo</w>
nego cios</w>
repul sa</w>
ham let</w>
siri o</w>
el ogi
escan dal
ar y</w>
hermos os</w>
héro es</w>
s antos</w>
mez quina</w>
in acción</w>
sospech osa</w>
gl oria</w>
desper tado</w>
soñoli enta</w>
podr ías</w>
to más</w>
confi d
bes arse</w>
gui jarro</w>
car ia</w>
sno b</w>
bur rada</w>
v ine</w>
fran cisco</w>
le cciones</w>
hi edra</w>
due ños</w>
conse jos</w>
trope z
form ando</w>
ten edor</w>
meter los</w>
ocurri era</w>
pase aba</w>
conf es
incur able</w>
fl au
ray mond</w>
oy éndose</w>
apr ende</w>
ti v
nostal gi
nostalgi as</w>
fundam entales</w>
per no
perno d</w>
asom aba</w>
raz as</w>
bus caban</w>
c ro</w>
ton tos</w>
a col
acol chado</w>
car tera</w>
cumpl ían</w>
infor me</w>
ho teles</w>
lúgu bre</w>
peg ándose</w>
invad ía</w>
bes arla</w>
arran cando</w>
quej umbr
mor dió</w>
reclam ando</w>
ex i
gi ó</w>
chu pó</w>
al zó</w>
sáb ana</w>
de volvía</w>
sacri ficio</w>
tranquiliz ó</w>
ern ación</w>
progr esi
am aba</w>
fero z</w>
féni x</w>
enfr ent
delici osamente</w>
ó pera</w>
medi taciones</w>
encuentr os</w>
pr in
absor ta</w>
brus cos</w>
en riqu
termin e</w>
ele gida</w>
coinci de</w>
mor diéndose</w>
st es</w>
sac an</w>
5 0</w>
es fer
esfer as</w>
acer car</w>
peg ando</w>
dor as</w>
ca zar</w>
comprend en</w>
pens ábamos</w>
t ini
og ías</w>
acord ás</w>
jug aban</w>
desa parecen</w>
verti cal</w>
ex cre
v an
persist ente</w>
gr am
solit aria</w>
to u
e tern
etern amente</w>
pin to</w>
vi su
visu al</w>
sor dos</w>
puntapi é</w>
fici os</w>
sensi bilidad</w>
in justo</w>
re clama</w>
expli co</w>
t emos</w>
mendo za</w>
borr ado</w>
enci ende</w>
he ur
empez aran</w>
dam n</w>
dig no</w>
paralelepí pedo</w>
g oso</w>
lápi ces</w>
inc es
corne ta</w>
frat ern
endi éndose</w>
ini a</w>
gi n</w>
l ong</w>
pla y</w>
aj enas</w>
anac r
t ora</w>
ar ci
elec tri
electri cidad</w>
disol vi
l agar
ci tos</w>
ten or</w>
arrastr e</w>
í do
balance aba</w>
constel aciones</w>
br on
re ple
dur os</w>
apoy aba</w>
eleg ían</w>
cad encioso</w>
an ar
ar tes</w>
perse cu
en volvía</w>
ár mela</w>
lute ci
atac ar</w>
respir aba</w>
compar able</w>
herzego vina</w>
impaci ente</w>
col cha</w>
gan cho</w>
hist érica</w>
agach ó</w>
apr end
s lip</w>
arre b
mi so</w>
s mit
smit h</w>
oí dos</w>
an na</w>
at estada</w>
bland amente</w>
adel g
suce diendo</w>
ham ac
pin tados</w>
car lo</w>
decir se</w>
b las</w>
tor p
torp emente</w>
molest arse</w>
prefer encias</w>
7 8</w>
sent aba</w>
ti ti
espanto samente</w>
entorn ados</w>
di damente</w>
moder no</w>
rom pi
toler able</w>
peg aba</w>
arm str
armstr ong</w>
quier es</w>
e ador</w>
hal l</w>
man gos</w>
españ a</w>
tor os</w>
amisto so</w>
ne y</w>
tom ada</w>
tor tura</w>
tor turas</w>
en fo
genti leza</w>
nor te
si vo</w>
resbal aban</w>
observ ó</w>
grot esco</w>
don e</w>
herr ami
tr em
remo to</w>
ig l
igl esia</w>
ofensi va</w>
lej ana</w>
gal lo</w>
cad av
alivi ado</w>
llovi endo</w>
ad quir
7 5</w>
vi ii</w>
p hi
ne as</w>
quini entas</w>
go od
good bye</w>
e y</w>
g h</w>
ped í</w>
re ina</w>
ases in
mi os</w>
lo cal</w>
poni éndose</w>
grand ísima</w>
ven día</w>
us aba</w>
entre abierta</w>
cin tur
cintur ón</w>
mer ecía</w>
homen aje</w>
diabó lico</w>
párra fo</w>
univer si
ir es</w>
apropi ado</w>
b ó</w>
elá stico</w>
f f
sent irlo</w>
rí gido</w>
t le</w>
avo ir</w>
e ar
al zaba</w>
ocurr ían</w>
torbell ino</w>
par pad
tor menta</w>
tran vías</w>
gu er
re medios</w>
o des
odes sa</w>
an ás</w>
aspir ina</w>
co sidad</w>
casti go</w>
ar cadi
mor ton</w>
cant ara</w>
esper ándola</w>
lo us
lous y</w>
ati </w>
re yes</w>
k son</w>
oc k</w>
ch ant
ó grafo</w>
z am
t hel
thel oni
ar t</w>
ni mos</w>
den omin
capri chos</w>
st ar</w>
wh en</w>
y our</w>
go ing</w>
hu elen</w>
ti bios</w>
acarici an</w>
dad ores</w>
gin e
gine bra</w>
ent ero</w>
cari amente</w>
er va</w>
enseñ ado</w>
t ho
gan aba</w>
h en
piol inci
piolinci to</w>
poten ci
maravill osamente</w>
sabi os</w>
peg arse</w>
certe za</w>
jo dido</w>
cont ent
res titu
vuel tos</w>
ide al</w>
rom per
pur é</w>
ro y
dod ds</w>
al d
hu x
meter la</w>
clav a</w>
concentr ación</w>
bl as
exist ía</w>
en fri
tir ados</w>
delir io</w>
compar ación</w>
di se
llam o</w>
conce dió</w>
ac tas</w>
co llar</w>
ceb ó</w>
telegr ama</w>
instal ar</w>
salam and
salamand ra</w>
berri dos</w>
g es
inso por
rumi ar</w>
cui dar</w>
d ro
visto sa</w>
cali ficación</w>
qued ando</w>
mont añas</w>
cr á
perspe ctiva</w>
graf os</w>
bo x</w>
amon te</w>
í stica</w>
entr añ
al oj
i das</w>
corre la
band era</w>
viol ación</w>
des confianza</w>
lic enci
cu lito</w>
bom billa</w>
fal se
er los</w>
tan go</w>
manot ón</w>
tembl aban</w>
éri camente</w>
sep amos</w>
qued ate</w>
solid aridad</w>
ten gamos</w>
entrecor tado</w>
re conocían</w>
fi a</w>
nove dad</w>
am ento</w>
é sas</w>
and amos</w>
d ándonos</w>
suici dado</w>
ir ás</w>
extra ñas</w>
encontr aremos</w>
ech ado</w>
brill aba</w>
autén tica</w>
desper tó</w>
so pla</w>
o clu
man te</w>
oi ga</w>
com en</w>
apre tándole</w>
ab e</w>
llor á</w>
m alg
malg as
pag a</w>
j ano</w>
tu er
tri co
cr ème</w>
min a</w>
k i</w>
s pi
qui ll
le gu
mun dos</w>
aj enos</w>
arr y</w>
co ur
dar ían</w>
cre cer</w>
co ur</w>
vag abun
elec tr
ver bos</w>
bor ra</w>
empi ezo</w>
disimu la</w>
vu él
le a</w>
s pin
spin o
apel ación</w>
ansi a</w>
empi ece</w>
opini ones</w>
trá fico</w>
entend ían</w>
curi osos</w>
avi sar</w>
plan os</w>
s án
dr am
acord arse</w>
irris oria</w>
frat er
can cha</w>
r amas</w>
otr edad</w>
pose ía</w>
ilustr ación</w>
al zar</w>
cor tando</w>
cli ente</w>
qui eta</w>
bi fe</w>
crí ticas</w>
con ferencia</w>
l y
refugi arse</w>
qui lla</w>
ve tu
discu tiendo</w>
empuj ones</w>
pap ada</w>
cru zaba</w>
introdu cción</w>
ofici al</w>
ocul taba</w>
in no
inno v
sin cre
fatí dico</w>
oy entes</w>
escu char
aut ó
fru to</w>
confi aba</w>
oper ar</w>
corro bor
públi cos</w>
agi tó</w>
desa pareció</w>
bam bal
bambal inas</w>
es tiró</w>
desi erta</w>
ver le</w>
fem en
blo que</w>
gust aban</w>
egip cia</w>
no tó</w>
1 4</w>
jo venci
aplas tó</w>
rotun da</w>
clav ando</w>
estableci ó</w>
fúne bre</w>
pas es</w>
repi tiendo</w>
rabi osamente</w>
aplau diendo</w>
br av
agu jeros</w>
cat a
frag or</w>
tembl or</w>
gi á
men su
mensu ales</w>
pli cas</w>
z can</w>
meter me</w>
o st
cre yó</w>
ati s
plá cido</w>
escuch aban</w>
i x</w>
di camente</w>
ni l</w>
ni do</w>
o ù
où </w>
pier re</w>
peg ados</w>
sobresal tó</w>
inclin ándose</w>
val ent
valent ín</w>
bille tes</w>
pre mio</w>
per cha</w>
avan zaba</w>
en fun
ti e</w>
g esti
em baj
bau d</w>
cal cular</w>
apli cado</w>
in mundo</w>
molest ara</w>
arti stas</w>
ez co</w>
frac asos</w>
de bilidad</w>
ten iendo</w>
e jo</w>
fran ce</w>
tor pes</w>
os ó
concentr arse</w>
elli </w>
en seguida</w>
resist ía</w>
pas ará</w>
prelu dio</w>
bur la</w>
camin ando</w>
estra pa
estrapa de</w>
acalam br
ofre cerle</w>
encant ador</w>
cont agi
re mol
dar é</w>
cab ellos</w>
atra v
enc endida</w>
l ento</w>
qui tarse</w>
jad eaba</w>
hun diendo</w>
trabaj osamente</w>
arg el
be bido</w>
comis aría</w>
déj eme</w>
despedi da</w>
sollo zos</w>
lleg aban</w>
preten do</w>
senci lla</w>
re volviendo</w>
pin tada</w>
do tado</w>
clav ados</w>
tiem bre</w>
acompañ aba</w>
pro xen
astu cia</w>
f lu
am ants</w>
h av
hav re</w>
lin da</w>
pu is
puis que</w>
ter re</w>
topi topi
apag ar</w>
br asa</w>
segu idos</w>
c ador</w>
dig esti
dij ese</w>
a fecto</w>
ma quin
tor ment
avan zando</w>
pal o</w>
res o
reso pl
ir resisti
resplan deci
vi brar</w>
blan que
ingl esa</w>
cole cciones</w>
extraordin arias</w>
mur allas</w>
ca oba</w>
s aba</w>
tapi z</w>
as tros</w>
suce dió</w>
perdon e</w>
inesper adamente</w>
just os</w>
t ándome</w>
pas aría</w>
termin ó</w>
alfil eres</w>
cán cer</w>
muñequi ta</w>
hos til</w>
ec to
sex to</w>
ca to</w>
qui dos</w>
t adamente</w>
suel en</w>
v alga</w>
cans adamente</w>
tar ot</w>
agarr arse</w>
materi ales</w>
espiri tuales</w>
g ér
gor das</w>
b et
fa it</w>
otr e</w>
e u</w>
po u
supi eras</w>
man ga</w>
gener ación</w>
bar ack</w>
pró digo</w>
mom ent
tir ándose</w>
regr eso</w>
chorre ando</w>
b años</w>
enter é</w>
abun d
g aro</w>
avent uras</w>
discul pas</w>
vam pir
des cal
cal zar</w>
cal zó</w>
estu pen
golpe aron</w>
mac anu
prot estar</w>
consum ación</w>
ho la</w>
vac ías</w>
decir les</w>
muri endo</w>
si én
en cerrado</w>
m amente</w>
n ado</w>
j ap
jap ón</w>
sist emas</w>
es fera</w>
glaci al</w>
trai go</w>
pa pa</w>
sum ir</w>
encend é</w>
malentendi dos</w>
neg ación</w>
f fi
z an
cé sar</w>
cuer no</w>
volvi ste</w>
vi eras</w>
sar có
sarcó f
án ticas</w>
al arg
er é</w>
dis mo</w>
agi taba</w>
le erlo</w>
psi co
tu yo</w>
con ec
pretend en</w>
r ás</w>
defin ido</w>
eth os</w>
balbuce o</w>
re mont
to bo
plante ar</w>
ste in</w>
form es</w>
afi cion
distin tas</w>
sal ada</w>
plant ado</w>
pudi eras</w>
est í
estí mu
k l
cl aridad</w>
v ati
entr amos</w>
tom amos</w>
tori amente</w>
absur dos</w>
pre cede</w>
est an
gusan os</w>
bon dad</w>
re vol
vá monos</w>
tend remos</w>
ad ren
adren alina</w>
ox í
oxí geno</w>
me tam
cie gos</w>
peligr oso</w>
cri sp
cab ía</w>
acer caban</w>
ceni ciento</w>
tom á</w>
rít micamente</w>
hag an</w>
m ê
mê me</w>
si eurs</w>
ce a</w>
ru i
calcul ó</w>
esp ina</w>
vómi tos</w>
as in
cen sura</w>
com partir</w>
llev aron</w>
in forma</w>
tu ya</w>
av era</w>
as fi
asfi xi
encontr aron</w>
au x</w>
con movido</w>
mad or</w>
jo ur</w>
imperi al</w>
no us</w>
mon de</w>
ti to</w>
tin es</w>
hi dr
ó geno</w>
su tiles</w>
ló gicas</w>
pró xima</w>
3 4</w>
1 7</w>
rel atos</w>
sab es</w>
comprender ás</w>
tar é</w>
tendr ás</w>
fíj ate</w>
hac erte</w>
par ados</w>
her rum
cai ga</w>
k ar
ar diendo</w>
edi ción</w>
pri mo</w>
m án</w>
h all
me ar</w>
pr esa</w>
jard ines</w>
ri </w>
infer i
eleg antes</w>
fort unas</w>
riqu eza</w>
des empeñ
mon io</w>
depen dencias</w>
ter os</w>
eri os</w>
arran que</w>
honr ad
ar de</w>
v anamente</w>
pu eri
físi co</w>
lac ri
instal ación</w>
ex is
cre an</w>
bro w
met áli
te o</w>
cri atura</w>
ol ogi
vi u
retro cedía</w>
le erla</w>
samari tana</w>
l ador</w>
inevi tables</w>
son aba</w>
veri ficar</w>
va de</w>
pon dr
ver é</w>
je un
me du
chu pando</w>
demasi ada</w>
cor so</w>
as ent
para pe
in salv
insalv able</w>
preci sión</w>
inci erta</w>
esco ba</w>
regal ado</w>
fle ur</w>
encontr ara</w>
pegar le</w>
ar añas</w>
mí os</w>
em erg
dist ancias</w>
sopor tar</w>
elem ental</w>
apr endi
satisfe chos</w>
sol dados</w>
cur arse</w>
ent eros</w>
prom esa</w>
trá gico</w>
frag mento</w>
rumor es</w>
obs ceni
des aboton
mezcl ada</w>
anal í
reclam ar</w>
temp s</w>
cé ri
céri ses</w>
liqui dar</w>
empuj ar</w>
habi lidad</w>
arte facto</w>
bos ta</w>
ma i
par agu
ó poli
ros ario</w>
per su
si tos</w>
inter pel
si c</w>
ant onio</w>
conden ada</w>
comprend ían</w>
espo so</w>
sinti éndose</w>
preocup an</w>
alu sión</w>
provo car</w>
sáb ados</w>
bata ta</w>
arm ada</w>
t as
par rilla</w>
recep ción</w>
anunci ó</w>
baj os</w>
pregun tando</w>
deci día</w>
solu ciones</w>
mad u
madu rez</w>
ciudad ano</w>
arro z</w>
p adas</w>
iv on
ivon ne</w>
gui tr
guitr y</w>
ca to
atri z</w>
des gan
emple ado</w>
n enes</w>
abr ían</w>
bald osa</w>
empecin adamente</w>
embo car</w>
deslumbr ado</w>
r ar</w>
buscar le</w>
sober an
soberan ía</w>
recono ce</w>
bár bar
sosten er</w>
congel ación</w>
alter na</w>
re v
razon amiento</w>
of endido</w>
aplas taba</w>
liter almente</w>
empez ará</w>
asi mi
com poner</w>
tí pico</w>
gar cía</w>
des ear</w>
có s
t hu
w un
wun na</w>
ky a
kya w</w>
h tin</w>
ra y</w>
insul to</w>
pas amos</w>
des bord
in calcul
k o</w>
asom ándose</w>
man dan</w>
due ña</w>
alem án</w>
mencion ado</w>
cont amin
cor tó</w>
empuj ó</w>
perío dos</w>
4 3</w>
nor m
te di
vi ta
vita e</w>
des encaden
ca és</w>
equilibri o</w>
tri b
op ía</w>
apoy arse</w>
inclin ó</w>
pal ad
vege tal</w>
análo ga</w>
desen lace</w>
te ñ
eci ente</w>
molest ó</w>
mol estar</w>
ban os</w>
taj ada</w>
aument ar</w>
aci tos</w>
vibr ación</w>
pen osamente</w>
acon te
ir rum
pro emios</w>
mo dista</w>
poll era</w>
arreg la</w>
val dría</w>
repe t
ar co
arco iris</w>
dej á</w>
ten gan</w>
dej ala</w>
reco gido</w>
hi jita</w>
caball ería</w>
al ía</w>
conven cer</w>
a puesta</w>
signifi ca
án tica</w>
asom ó</w>
ladri llos</w>
dibuj arse</w>
quem ada</w>
cos er</w>
tir ara</w>
in cómo
consi gue</w>
podr é</w>
multipli cación</w>
tu dos</w>
ci tar</w>
recib ía</w>
comi o</w>
i sid
isid ro</w>
vivi mos</w>
des di
li ber</w>
ali s</w>
descu ido</w>
cost ar</w>
exist en</w>
encar gado</w>
prolon gar</w>
def ender
mens aj
jun ta</w>
bi ta</w>
ab revi
comodi dad</w>
esp eso</w>
manot azos</w>
tre par</w>
levant aste</w>
creci endo</w>
cre cido</w>
can ario</w>
no vio</w>
dom ingos</w>
habl abas</w>
avi o</w>
dec ías</w>
sir va</w>
pi ant
estr ías</w>
ton cito</w>
mag ne
magne tó
magnetó fono</w>
asombr ado</w>
tu almente</w>
res olvi
alari dos</w>
fi f
fif ty</w>
de pri
cen ar</w>
mi x
baj as</w>
du das</w>
ju gada</w>
cuch eta</w>
adi ó
adió s</w>
psicolo gía</w>
abandon ar</w>
quem ar</w>
can a</w>
ciu dades</w>
peque ñas</w>
ch ero</w>
segu iría</w>
cé le
secre tos</w>
me lián</w>
ín dice</w>
fa cul
ren ovi
renovi go</w>
cin es</w>
ti tos</w>
avis arle</w>
entreg a</w>
inter medio</w>
pre vio</w>
pab ell
pabell ón</w>
usu ales</w>
episo dio</w>
propiet ario</w>
mostr ándole</w>
ac ta</w>
firm ó</w>
le ch
dej ará</w>
schwit t</w>
fran co</w>
dic aciones</w>
prot ag
lu j
p ir</w>
estableci miento</w>
pre visto</w>
per cat
contr i
contri bu
dis posición</w>
encendi eron</w>
contr acción</w>
ni ve
nive les</w>
respetu oso</w>
equi po</w>
far dos</w>
pó ker</w>
po zos</w>
instal ados</w>
dele gación</w>
pusi eran</w>
provo cado</w>
munici p
gu ad
guad aña</w>
pens aron</w>
re f
ayu dan</w>
organiz ación</w>
llev aría</w>
exper im
man tener</w>
hac es</w>
mat arlo</w>
bo zo</w>
asi mil
á nico</w>
con jet
cont é</w>
gu ía</w>
habi tual</w>
bene vol
rechaz ó</w>
cont agio</w>
avi dez</w>
pr endi
gi </w>
fr ági
justi fi
clási ca</w>
agi ta</w>
tan es</w>
acu osa</w>
amonton adas</w>
con cebi
ad eros</w>
des agrad
desagrad aba</w>
ignor aba</w>
mas as</w>
indign ados</w>
ensay ar</w>
múlti pl
múltipl es</w>
ca y
que brar</w>
ab ol
observ ar</w>
cal mar
inf antes</w>
que de</w>
inci tación</w>
di ana</w>
har ían</w>
abr ir
intu ir</w>
col gar</w>
entre ver</w>
agr ado</w>
ad mon
insol encia</w>
tí mido</w>
inclin arse</w>
simult áne
fru tas</w>
i dó
idó neo</w>
pisto la</w>
es en</w>
ri m
ru pción</w>
cu aj
as omo</w>
ec en</w>
hy den</w>
separ ación</w>
es enciales</w>
mé todos</w>
conten ida</w>
nu cleicos</w>
tradu cción</w>
con tienen</w>
di cha</w>
vari edad</w>
astron ómi
inquiet antes</w>
psi coló
fin es</w>
n apo
adver tir</w>
cambi an</w>
simulac ro</w>
mé xi
méxi co</w>
fi cha</w>
com plac
agr ada</w>
estable cer</w>
científi co</w>
pl as
libre mente</w>
fu ma</w>
bi si
ter a
tera pia</w>
ad mira</w>
st u
fin ales</w>
pri mor
bri sa</w>
imagin é</w>
pro pag
yu x
jad e
cr esta</w>
tom as</w>
es k
titu be
o puesta</w>
abandon ó</w>
k o
comple jo</w>
adam </w>
t acita</w>
perio dist
periodist as</w>
he is
heis enberg</w>
ani lla</w>
fam osos</w>
tún el</w>
mon te</w>
se pa</w>
form ado</w>
tu mul
éli te</w>
tele visión</w>
hab ana</w>
satisfac torio</w>
no t</w>
se cándose</w>
cir cui
re be
rebe li
rebeli ón</w>
har ina</w>
alej a</w>
ni mio</w>
empobreci miento</w>
inter media</w>
fulgur ante</w>
ale gre
alegre mente</w>
le te</w>
habitu almente</w>
re cí
recí pro
ambi ciones</w>
col ón</w>
cerr ándose</w>
dor ado</w>
qui anos</w>
gor go
sobre vivi
sobrevivi ente</w>
acep ción</w>
exam en</w>
aglutin ante</w>
aisl adas</w>
in ero</w>
ped ant
deten ción</w>
polí tico</w>
oblig adamente</w>
ant ino
narra tiva</w>
encontr ará</w>
boni tas</w>
estruct uras</w>
er aria</w>
b á
bal z
balz ac</w>
ahu y
in visibles</w>
aflig e</w>
agu da</w>
m aci
liter arios</w>
tu osos</w>
menu do</w>
po ética</w>
ac tual</w>
tri ca</w>
f os</w>
pé tal
pétal os</w>
al umbr
cotidi ano</w>
arri es
gui llo
guillo tin
estatu as</w>
comi sión</w>
más caras</w>
suel tos</w>
b en</w>
estuvi mos</w>
carpe tas</w>
llor ó</w>
mi el</w>
or ación</w>
tecn ología</w>
6 00</w>
es encial</w>
narr ación</w>
ri cu
continu aba</w>
bofet adas</w>
observ ación</w>
destru cción</w>
th er</w>
k es</w>
conqui st
co pa
copa in</w>
funcion a</w>
ci no</w>
wil l</w>
ci ma</w>
ba te</w>
pes car</w>
desc ender</w>
par es</w>
m all
vali do</w>
surre alistas</w>
ex cesivamente</w>
vend en</w>
a cuerda</w>
val en</w>
turi sta</w>
b ag
ó logos</w>
in fr
in ter</w>
cort esía</w>
le ver</w>
de ux</w>
cuá les</w>
h al</w>
baj an</w>
w e</w>
gr o
fi ll
fill oy</w>
e ga</w>
gas a</w>
pro vinci
pal ermo</w>
inst antes</w>
arti ficio</w>
com puesto</w>
form ada</w>
prínci pe</w>
cas inos</w>
pi cas</w>
cabar et</w>
cabar ets</w>
pr ensa</w>
pregun tarme</w>
veh í
sust anti
hu manas</w>
pastiz ales</w>
anten as</w>
s c
a puro</w>
pi diera</w>
jaz min
jazmin es</w>
ro mana</w>
piri z</w>
equival ente</w>
respecti vamente</w>
or ar</w>
inclin ado</w>
congel ada</w>
circul ación</w>
respecti va</w>
0 00</w>
kiló metro</w>
respecti vos</w>
tendr íamos</w>
ministr ación</w>
abi lidad</w>
propi edad</w>
veci no</w>
cam ellos</w>
gran jas</w>
micro bios</w>
mencion ados</w>
perten ecer</w>
aco tación</w>
di pu
dipu tado</w>
mili t
milit arismo</w>
par ques</w>
cab e</w>
pedir lo</w>
obs c
ol d</w>
mis a</w>
tradu cir</w>
gü edad</w>
ing enu
recor dó</w>
caver na</w>
responsab les</w>
al mir
almir ante</w>
regal o</w>
descu i
cu atro
cuatro cientos</w>
uni dades</w>
escrib irle</w>
admir adores</w>
volver emos</w>
fron tera</w>
vi st
mari e</w>
he li
m me</w>
bo cado</w>
asi entos</w>
om b
omb ú</w>
viaj an</w>
embo tell
embotell amiento</w>
dest empl
sel va</w>
fran ja</w>
cor be
corbe il</w>
avan zado</w>
porte z
de tenido</w>
o us</w>
pi per</w>
cu b</w>
re tras
automó viles</w>
radi os</w>
jam ón</w>
bur sá
cir cular</w>
do cena</w>
can tim
cantim pl
rá f
h as
abandon ado</w>
hosti lidad</w>
ci ales</w>
mon ja</w>
a fer
alum nos</w>
desmay os</w>
le erle</w>
contra to</w>
br in
no valli</w>
hi jito</w>
olvi dar</w>
reci bió</w>
tra erle</w>
recom end
vaci lar</w>
podr án</w>
sab íamos</w>
tr amos</w>
cos o</w>
metr alla</w>
cuer nos</w>
lan z
d al</w>
dici éndole</w>
acer qué</w>
vel ador</w>
consol arlo</w>
ag a
est her</w>
stewar des
stewardes s</w>
re curr
cant ina</w>
pul pos</w>
ban dej
bandej as</w>
i onas</w>
col ina</w>
o to
interval o</w>
bi enven
sill ones</w>
par k</w>
hábi to</w>
fati gado</w>
calle juelas</w>
much ed
muched umbre</w>
dor adas</w>
di rá</w>
ces ado</w>
redon das</w>
cocin ero</w>
en vuelve</w>
fal sas</w>
guirn al
guirnal das</w>
prusi anos</w>
apo te
apote osis</w>
fiac res</w>
cad enas</w>
arr as</w>
mor irse</w>
dentífri ca</w>
dal ena</w>
ferro vi
ma pa</w>
tane idad</w>
armon i
difíci les</w>
lam o</w>
abun dan</w>
destinat ario</w>
sue le</w>
cañ ería</w>
er án</w>
tortu gas</w>
hor ren
due lo</w>
pas cua</w>
salom ón</w>
l emos</w>
res frío</w>
vol l</w>
cam us
camus so</w>
fáb ricas</w>
giras ol</w>
repúbli cas</w>
pudi eron</w>
re tira</w>
pant uf
err an</w>
l anza</w>
mar at</w>
de lia</w>
acu de</w>
ve te</w>
secret arios</w>
vender le</w>
decir las</w>
mar can</w>
manej aba</w>
coco tero</w>
gi me</w>
vir tud</w>
sandwi ches</w>
clau d
claud ine</w>
all en</w>
d orita</w>
invi tado</w>
pescadi to</w>
comen sales</w>
ci ne
cine asta</w>
chi vas</w>
j im</w>
jor ge</w>
gladi s</w>
tra u
trau ma
os val
osval do</w>
se ine</w>
inscrib ía</w>
pre til</w>
vende dora</w>
l and
ern st</w>
bar atas</w>
b arran
ri s</w>
auto buses</w>
distra ída</w>
ci c
cic lo</w>
arrol l
cel osa</w>
es se</w>
pér fi
pérfi da</w>
abraz ados</w>
hún gara</w>
in se
inse cto</w>
resor tes</w>
estir aba</w>
em bre</w>
an uncia</w>
sopl aba</w>
ck ets</w>
mu elles</w>
